unsigned char mlp_model_tflite[] = {
  0x1c, 0x00, 0x00, 0x00, 0x54, 0x46, 0x4c, 0x33, 0x14, 0x00, 0x20, 0x00,
  0x1c, 0x00, 0x18, 0x00, 0x14, 0x00, 0x10, 0x00, 0x0c, 0x00, 0x00, 0x00,
  0x08, 0x00, 0x04, 0x00, 0x14, 0x00, 0x00, 0x00, 0x1c, 0x00, 0x00, 0x00,
  0x9c, 0x00, 0x00, 0x00, 0xf4, 0x00, 0x00, 0x00, 0x10, 0x32, 0x00, 0x00,
  0x20, 0x32, 0x00, 0x00, 0x30, 0x3b, 0x00, 0x00, 0x03, 0x00, 0x00, 0x00,
  0x01, 0x00, 0x00, 0x00, 0x10, 0x00, 0x00, 0x00, 0x00, 0x00, 0x0a, 0x00,
  0x10, 0x00, 0x0c, 0x00, 0x08, 0x00, 0x04, 0x00, 0x0a, 0x00, 0x00, 0x00,
  0x0c, 0x00, 0x00, 0x00, 0x1c, 0x00, 0x00, 0x00, 0x3c, 0x00, 0x00, 0x00,
  0x0f, 0x00, 0x00, 0x00, 0x73, 0x65, 0x72, 0x76, 0x69, 0x6e, 0x67, 0x5f,
  0x64, 0x65, 0x66, 0x61, 0x75, 0x6c, 0x74, 0x00, 0x01, 0x00, 0x00, 0x00,
  0x04, 0x00, 0x00, 0x00, 0x8c, 0xff, 0xff, 0xff, 0x12, 0x00, 0x00, 0x00,
  0x04, 0x00, 0x00, 0x00, 0x08, 0x00, 0x00, 0x00, 0x6f, 0x75, 0x74, 0x70,
  0x75, 0x74, 0x5f, 0x30, 0x00, 0x00, 0x00, 0x00, 0x01, 0x00, 0x00, 0x00,
  0x04, 0x00, 0x00, 0x00, 0x8e, 0xce, 0xff, 0xff, 0x04, 0x00, 0x00, 0x00,
  0x10, 0x00, 0x00, 0x00, 0x6b, 0x65, 0x72, 0x61, 0x73, 0x5f, 0x74, 0x65,
  0x6e, 0x73, 0x6f, 0x72, 0x5f, 0x31, 0x30, 0x39, 0x00, 0x00, 0x00, 0x00,
  0x02, 0x00, 0x00, 0x00, 0x34, 0x00, 0x00, 0x00, 0x04, 0x00, 0x00, 0x00,
  0xdc, 0xff, 0xff, 0xff, 0x15, 0x00, 0x00, 0x00, 0x04, 0x00, 0x00, 0x00,
  0x13, 0x00, 0x00, 0x00, 0x43, 0x4f, 0x4e, 0x56, 0x45, 0x52, 0x53, 0x49,
  0x4f, 0x4e, 0x5f, 0x4d, 0x45, 0x54, 0x41, 0x44, 0x41, 0x54, 0x41, 0x00,
  0x08, 0x00, 0x0c, 0x00, 0x08, 0x00, 0x04, 0x00, 0x08, 0x00, 0x00, 0x00,
  0x14, 0x00, 0x00, 0x00, 0x04, 0x00, 0x00, 0x00, 0x13, 0x00, 0x00, 0x00,
  0x6d, 0x69, 0x6e, 0x5f, 0x72, 0x75, 0x6e, 0x74, 0x69, 0x6d, 0x65, 0x5f,
  0x76, 0x65, 0x72, 0x73, 0x69, 0x6f, 0x6e, 0x00, 0x16, 0x00, 0x00, 0x00,
  0x18, 0x31, 0x00, 0x00, 0x10, 0x31, 0x00, 0x00, 0xf0, 0x30, 0x00, 0x00,
  0x58, 0x30, 0x00, 0x00, 0x48, 0x2e, 0x00, 0x00, 0x38, 0x26, 0x00, 0x00,
  0x28, 0x06, 0x00, 0x00, 0x14, 0x06, 0x00, 0x00, 0xf4, 0x05, 0x00, 0x00,
  0xc4, 0x05, 0x00, 0x00, 0x74, 0x05, 0x00, 0x00, 0xe4, 0x04, 0x00, 0x00,
  0xd4, 0x03, 0x00, 0x00, 0xc4, 0x00, 0x00, 0x00, 0xbc, 0x00, 0x00, 0x00,
  0xb4, 0x00, 0x00, 0x00, 0xac, 0x00, 0x00, 0x00, 0xa4, 0x00, 0x00, 0x00,
  0x9c, 0x00, 0x00, 0x00, 0x94, 0x00, 0x00, 0x00, 0x74, 0x00, 0x00, 0x00,
  0x04, 0x00, 0x00, 0x00, 0x66, 0xcf, 0xff, 0xff, 0x04, 0x00, 0x00, 0x00,
  0x60, 0x00, 0x00, 0x00, 0x10, 0x00, 0x00, 0x00, 0x00, 0x00, 0x00, 0x00,
  0x08, 0x00, 0x0e, 0x00, 0x08, 0x00, 0x04, 0x00, 0x08, 0x00, 0x00, 0x00,
  0x10, 0x00, 0x00, 0x00, 0x24, 0x00, 0x00, 0x00, 0x00, 0x00, 0x06, 0x00,
  0x08, 0x00, 0x04, 0x00, 0x06, 0x00, 0x00, 0x00, 0x04, 0x00, 0x00, 0x00,
  0x00, 0x00, 0x00, 0x00, 0x0c, 0x00, 0x18, 0x00, 0x14, 0x00, 0x10, 0x00,
  0x0c, 0x00, 0x04, 0x00, 0x0c, 0x00, 0x00, 0x00, 0xc8, 0x0a, 0x4d, 0xee,
  0xbe, 0x2f, 0x6c, 0xea, 0x02, 0x00, 0x00, 0x00, 0x02, 0x00, 0x00, 0x00,
  0x04, 0x00, 0x00, 0x00, 0x06, 0x00, 0x00, 0x00, 0x32, 0x2e, 0x31, 0x38,
  0x2e, 0x30, 0x00, 0x00, 0xd2, 0xcf, 0xff, 0xff, 0x04, 0x00, 0x00, 0x00,
  0x10, 0x00, 0x00, 0x00, 0x31, 0x2e, 0x35, 0x2e, 0x30, 0x00, 0x00, 0x00,
  0x00, 0x00, 0x00, 0x00, 0x00, 0x00, 0x00, 0x00, 0xd8, 0xc6, 0xff, 0xff,
  0xdc, 0xc6, 0xff, 0xff, 0xe0, 0xc6, 0xff, 0xff, 0xe4, 0xc6, 0xff, 0xff,
  0xe8, 0xc6, 0xff, 0xff, 0xec, 0xc6, 0xff, 0xff, 0x06, 0xd0, 0xff, 0xff,
  0x04, 0x00, 0x00, 0x00, 0x00, 0x03, 0x00, 0x00, 0x8d, 0x31, 0xfe, 0x3d,
  0xf9, 0xea, 0xf8, 0xbd, 0x0c, 0x2d, 0x2b, 0x3e, 0x92, 0x04, 0x11, 0x3e,
  0x8c, 0x20, 0xe5, 0x3d, 0xf0, 0x26, 0xab, 0xbc, 0xa3, 0x5f, 0x42, 0x3e,
  0x30, 0x72, 0x68, 0x3e, 0x78, 0x54, 0x73, 0x3e, 0x5f, 0x6a, 0x5a, 0x3e,
  0xef, 0x75, 0x89, 0xbe, 0xd8, 0xbf, 0x43, 0xbe, 0xd4, 0x6d, 0x97, 0xbe,
  0x57, 0xdc, 0x76, 0xbe, 0x2e, 0xad, 0xdd, 0xbd, 0xad, 0xcf, 0x2a, 0x3e,
  0xc5, 0xe4, 0x2f, 0xbe, 0x88, 0x6e, 0x5a, 0x3e, 0x0e, 0xfe, 0x2c, 0x3e,
  0xf6, 0xc2, 0x8b, 0x3e, 0x00, 0x97, 0x5f, 0xbe, 0x9d, 0x49, 0x88, 0x3e,
  0xd2, 0x3e, 0xea, 0xbd, 0x00, 0xc7, 0xc3, 0x3c, 0x15, 0xd0, 0x0d, 0x3d,
  0x25, 0xef, 0x7f, 0x3e, 0x06, 0xd2, 0xac, 0xbd, 0xb5, 0xfb, 0x22, 0xbe,
  0xcb, 0x97, 0x85, 0xbc, 0x58, 0x93, 0x71, 0xbe, 0x30, 0xc1, 0x78, 0xbe,
  0x68, 0xb6, 0x93, 0xbe, 0xd8, 0xa9, 0x8c, 0x3d, 0xef, 0xa7, 0x85, 0xbe,
  0x5e, 0x0e, 0xd0, 0xbd, 0xa0, 0xa4, 0x0e, 0xbe, 0xff, 0xcf, 0x80, 0xbc,
  0x9f, 0x8c, 0xe6, 0xbd, 0xe2, 0x3a, 0x3c, 0x3e, 0xff, 0xea, 0x46, 0x3e,
  0xd7, 0xc9, 0x89, 0x3e, 0x2c, 0xbb, 0x82, 0xbe, 0x11, 0x90, 0x97, 0x3e,
  0x03, 0x47, 0x85, 0x3d, 0x10, 0x1b, 0xa6, 0xbc, 0x48, 0xa7, 0x6c, 0xbe,
  0x10, 0x40, 0x44, 0xbe, 0x6c, 0x05, 0xb1, 0x3d, 0xfa, 0xd2, 0xf1, 0xbd,
  0xa5, 0xbb, 0x34, 0x3e, 0x40, 0x4b, 0xa4, 0xbc, 0x7c, 0xf6, 0xb5, 0xbe,
  0xd0, 0xe5, 0x8d, 0x3d, 0xd8, 0xaa, 0x5c, 0xbd, 0xa8, 0x8e, 0x39, 0xbe,
  0x45, 0xba, 0x53, 0xbe, 0x04, 0xbe, 0x5f, 0x3e, 0xa3, 0x90, 0xc4, 0x3c,
  0x8c, 0x14, 0x3f, 0xbe, 0x00, 0xfd, 0xd3, 0x3b, 0xde, 0xb1, 0xb5, 0x3d,
  0xf8, 0x5a, 0x65, 0xbe, 0x5c, 0x44, 0xc0, 0x3d, 0xd7, 0x0b, 0x59, 0xbe,
  0xb2, 0xc0, 0x80, 0xbd, 0x42, 0x87, 0xb4, 0xbd, 0xf1, 0x4b, 0x7d, 0x3e,
  0x8a, 0x04, 0x53, 0xbd, 0xc7, 0x53, 0x2e, 0xbe, 0xd2, 0xc4, 0x58, 0x3e,
  0x5f, 0x10, 0x32, 0xbe, 0x1c, 0x49, 0xb2, 0x3d, 0xd3, 0xc9, 0x64, 0xbc,
  0x23, 0x0f, 0x28, 0x3d, 0x52, 0xc8, 0x87, 0x3e, 0x90, 0x2c, 0x7a, 0xbd,
  0x16, 0xc1, 0x62, 0x3e, 0x10, 0x61, 0x22, 0xbd, 0xd5, 0xd8, 0x24, 0xbc,
  0xca, 0x00, 0x49, 0x3d, 0x35, 0x4e, 0x0a, 0xbe, 0xf8, 0xfe, 0xd7, 0x3d,
  0x88, 0xa5, 0x82, 0x3e, 0xd0, 0x0d, 0xcd, 0x3d, 0x38, 0xf9, 0x59, 0x3d,
  0x49, 0xa9, 0xb1, 0x3c, 0xe4, 0x94, 0x51, 0xbd, 0x60, 0x12, 0x93, 0x3e,
  0xd0, 0xbd, 0xe1, 0x3d, 0x00, 0x01, 0xcb, 0xbc, 0x82, 0x9f, 0xeb, 0x3c,
  0xae, 0x44, 0x48, 0xbd, 0x95, 0x3e, 0x10, 0xbe, 0x0d, 0x45, 0x0f, 0xbe,
  0xc5, 0xc1, 0x09, 0x3e, 0x12, 0x55, 0x8a, 0xbe, 0xa1, 0xca, 0x80, 0xbe,
  0x06, 0xc0, 0x5e, 0x3e, 0x70, 0x21, 0x72, 0x3e, 0x0f, 0x74, 0x14, 0x3c,
  0x9c, 0xbe, 0x86, 0x3e, 0x17, 0x00, 0x21, 0xbe, 0x21, 0xdb, 0x89, 0x3e,
  0x1e, 0x08, 0x41, 0xbd, 0x5c, 0xd7, 0x96, 0xbe, 0x9a, 0xfa, 0xad, 0xbd,
  0xd5, 0xf3, 0xac, 0x3d, 0x54, 0x85, 0x9a, 0x3d, 0x5b, 0x19, 0x3c, 0xbe,
  0x16, 0x7e, 0xd7, 0xbc, 0x3a, 0x03, 0x11, 0xbe, 0xc3, 0x21, 0x7a, 0xbe,
  0x25, 0xf8, 0x96, 0xbd, 0x4c, 0xed, 0x62, 0x3e, 0x5e, 0x6f, 0x04, 0xbe,
  0x6d, 0x9d, 0x06, 0xbe, 0xae, 0x39, 0x15, 0x3e, 0xb5, 0xcb, 0x3c, 0x3d,
  0xed, 0xf0, 0x49, 0x3e, 0x10, 0x45, 0x4f, 0x3e, 0x38, 0xb7, 0x2b, 0x3e,
  0xc2, 0x94, 0x7a, 0x3e, 0x98, 0x2f, 0x7b, 0xbd, 0x2d, 0xb6, 0xa4, 0xbd,
  0x3b, 0xdf, 0x35, 0xbe, 0x10, 0x96, 0xbf, 0x3c, 0x47, 0x25, 0xba, 0xbe,
  0x95, 0x8b, 0xf6, 0xbd, 0x5b, 0xa8, 0x6b, 0xbe, 0x03, 0x2a, 0x64, 0xbe,
  0xbd, 0xb3, 0x48, 0xbe, 0xd4, 0xbe, 0xfb, 0x3d, 0x39, 0x5e, 0x82, 0x3e,
  0xef, 0x1f, 0x7c, 0xbe, 0x3c, 0x97, 0xe8, 0x3d, 0xc9, 0xde, 0x62, 0xbc,
  0xbe, 0x45, 0x8d, 0xbe, 0xa4, 0x94, 0x75, 0xbe, 0xcb, 0xca, 0x6b, 0xbe,
  0x08, 0x2f, 0xe4, 0xbd, 0xf6, 0x6f, 0x25, 0x3e, 0x27, 0xf1, 0x30, 0x3e,
  0x77, 0xab, 0xc4, 0x3d, 0x62, 0xfe, 0xb3, 0xbd, 0xfe, 0x8d, 0x81, 0x3d,
  0x37, 0xca, 0x30, 0xbe, 0x2e, 0xab, 0x90, 0x3e, 0xa7, 0x1f, 0x57, 0xbe,
  0x29, 0x53, 0xe3, 0xbd, 0x33, 0x10, 0x33, 0xbe, 0x04, 0x5a, 0x20, 0xbe,
  0x2b, 0xd3, 0x04, 0xbc, 0x00, 0x92, 0xa3, 0x3c, 0xdc, 0x66, 0x47, 0x3e,
  0x9d, 0x19, 0x83, 0x3e, 0x15, 0xea, 0x98, 0xbe, 0x0d, 0x81, 0x7c, 0x3e,
  0xf3, 0x52, 0x33, 0x3e, 0xb8, 0x20, 0x94, 0xbe, 0x48, 0x67, 0x85, 0xbe,
  0x90, 0x20, 0xc4, 0xbc, 0x84, 0x43, 0x86, 0xbe, 0xac, 0x37, 0x19, 0xbe,
  0x54, 0xb3, 0x70, 0x3e, 0xfc, 0x13, 0x4f, 0x3e, 0xfb, 0x2d, 0x19, 0x3e,
  0xb9, 0x00, 0x17, 0x3e, 0xe6, 0xb3, 0xc7, 0xbd, 0x3c, 0x2e, 0x0a, 0x3e,
  0x38, 0xbd, 0x77, 0x3b, 0x00, 0x1c, 0xd8, 0xbb, 0xf0, 0x37, 0x31, 0x3e,
  0xd6, 0xf7, 0x90, 0xbe, 0x66, 0xf0, 0xa5, 0xbd, 0x3c, 0x6e, 0x4b, 0xbe,
  0x1b, 0x46, 0x8c, 0x3e, 0x8e, 0xac, 0x52, 0xbe, 0xed, 0xce, 0x64, 0xbd,
  0x6d, 0xa9, 0xb7, 0xbd, 0x46, 0x82, 0x14, 0xbe, 0xf0, 0xd1, 0x6a, 0xbe,
  0xa9, 0xa9, 0xf1, 0x3d, 0xf0, 0x50, 0xa7, 0x3c, 0x94, 0xd8, 0xb8, 0xbe,
  0xb0, 0xd0, 0x2a, 0x3e, 0x80, 0x24, 0x2e, 0x3b, 0x81, 0x62, 0x01, 0xbe,
  0xb6, 0x83, 0x8f, 0x3c, 0x60, 0x42, 0xd7, 0x3c, 0x13, 0x1c, 0x1c, 0xbe,
  0x09, 0x1a, 0x95, 0xbc, 0x13, 0xf7, 0x86, 0xbe, 0x12, 0xd3, 0xff, 0xff,
  0x04, 0x00, 0x00, 0x00, 0x00, 0x01, 0x00, 0x00, 0xd8, 0x6c, 0x9f, 0x3d,
  0x0b, 0xf0, 0xa1, 0x3d, 0x6d, 0xcb, 0x77, 0x3d, 0xdd, 0x19, 0x8c, 0x3d,
  0x1c, 0xb3, 0x98, 0x3d, 0x6f, 0x69, 0xa3, 0x3d, 0x11, 0x2d, 0xa6, 0x3d,
  0x58, 0x2b, 0xb5, 0xbc, 0x58, 0xf2, 0x4f, 0xbd, 0xef, 0x39, 0xb9, 0xbc,
  0x93, 0xff, 0x36, 0xbd, 0x92, 0x07, 0xbb, 0x3d, 0xab, 0xba, 0x13, 0xbd,
  0x07, 0xc5, 0x99, 0x3d, 0x9a, 0x5e, 0xde, 0x3c, 0xa5, 0x42, 0x7b, 0xbd,
  0xdb, 0x60, 0x2c, 0xbd, 0x87, 0x2e, 0x6f, 0xbd, 0x56, 0x4e, 0x82, 0x3d,
  0x21, 0xc4, 0x6c, 0x3d, 0xb1, 0x43, 0x5a, 0x3d, 0xa6, 0xdf, 0x6d, 0xbd,
  0x5a, 0xd6, 0x84, 0x3d, 0xa0, 0xe2, 0x65, 0xbd, 0x32, 0xbc, 0xb0, 0xbc,
  0x6d, 0xc1, 0x78, 0x3d, 0xe7, 0x90, 0xc0, 0x3d, 0x3a, 0x82, 0xa0, 0x3d,
  0x97, 0x8d, 0xb4, 0x3d, 0x39, 0x93, 0x35, 0xbd, 0x92, 0x4c, 0x8e, 0x3d,
  0xab, 0x8a, 0x93, 0x3c, 0x90, 0x43, 0xef, 0xbc, 0xf4, 0x58, 0x1c, 0x3d,
  0x29, 0x1a, 0x24, 0xbd, 0x30, 0xa5, 0x28, 0xbd, 0xd1, 0xe7, 0x1d, 0xbd,
  0x1c, 0x1f, 0x47, 0x3c, 0x20, 0x36, 0x98, 0x3d, 0x49, 0x24, 0x46, 0x3c,
  0x0c, 0x62, 0xc3, 0x3d, 0x0f, 0x7b, 0x06, 0xbd, 0x1a, 0xac, 0x9c, 0x3d,
  0x26, 0x50, 0x78, 0x3d, 0x9e, 0xd9, 0x89, 0x3d, 0x6b, 0xa4, 0xe6, 0xbc,
  0x68, 0x8c, 0x2f, 0xbd, 0xbc, 0x2c, 0xa7, 0x3d, 0x06, 0x2e, 0xa0, 0xbc,
  0x50, 0xd4, 0x2b, 0xbc, 0xcd, 0xfe, 0x3a, 0xbd, 0x4f, 0x34, 0xe1, 0xbc,
  0x89, 0x31, 0xa4, 0x3b, 0xdd, 0x28, 0x17, 0x3d, 0x28, 0x18, 0x87, 0x3d,
  0xf9, 0xef, 0xf5, 0xbc, 0xe3, 0x26, 0xcb, 0x3d, 0x2c, 0xa4, 0x5e, 0x3d,
  0xbf, 0xe8, 0x89, 0x3d, 0x55, 0x38, 0xf8, 0xbb, 0xb1, 0x48, 0x01, 0xbd,
  0x41, 0x95, 0x8f, 0xbc, 0x45, 0x73, 0xcd, 0xbc, 0x12, 0x05, 0xf2, 0xbc,
  0x1e, 0xd4, 0xff, 0xff, 0x04, 0x00, 0x00, 0x00, 0x80, 0x00, 0x00, 0x00,
  0x14, 0x5d, 0xd8, 0x3c, 0xfc, 0x1d, 0x48, 0x3c, 0x8f, 0x46, 0x99, 0xbc,
  0x68, 0xec, 0x4a, 0xbc, 0x9c, 0x18, 0x29, 0xbd, 0xd2, 0x02, 0x99, 0xbc,
  0xf3, 0x83, 0x9c, 0x3d, 0x8a, 0xb6, 0x6f, 0x3d, 0xf2, 0x80, 0xcd, 0xb9,
  0xcb, 0x1e, 0xfe, 0xbc, 0x61, 0x32, 0x6a, 0x3d, 0x6f, 0x0e, 0xf2, 0xbc,
  0xeb, 0xf3, 0x09, 0xbd, 0x28, 0x3c, 0x9a, 0x3d, 0x27, 0x65, 0xbd, 0x3b,
  0xed, 0x9c, 0x97, 0xbc, 0x72, 0xc2, 0x53, 0x3d, 0xa6, 0x1a, 0x0a, 0xbd,
  0x30, 0x72, 0x61, 0xbd, 0x3a, 0xa4, 0x74, 0xbc, 0x75, 0xfa, 0x82, 0x3d,
  0x3c, 0xb1, 0x73, 0x3d, 0x65, 0x41, 0xbc, 0xbc, 0xc0, 0x51, 0xd2, 0xbc,
  0xf5, 0xd3, 0x1d, 0x3d, 0x37, 0xdc, 0x1c, 0xbc, 0xc0, 0xa6, 0x27, 0xbd,
  0x5a, 0x2c, 0x40, 0x3d, 0x00, 0x00, 0x00, 0x00, 0x31, 0xa6, 0xa4, 0xbc,
  0xab, 0xbf, 0x03, 0xbc, 0xcc, 0xaa, 0xaf, 0xbc, 0xaa, 0xd4, 0xff, 0xff,
  0x04, 0x00, 0x00, 0x00, 0x40, 0x00, 0x00, 0x00, 0x56, 0xff, 0x66, 0xbc,
  0x2c, 0xb3, 0x90, 0x3d, 0xd5, 0xf5, 0xed, 0xbb, 0x49, 0x1f, 0x96, 0x3d,
  0xb0, 0x35, 0xbc, 0x3d, 0x3c, 0x23, 0xa3, 0x3c, 0x8b, 0x4c, 0x84, 0xbc,
  0x1a, 0xe5, 0x90, 0x3d, 0x2c, 0xdb, 0xe4, 0xbc, 0xc7, 0x85, 0x4f, 0x3d,
  0x1b, 0x7c, 0x82, 0x3d, 0xae, 0xb8, 0xd4, 0x3d, 0x75, 0x75, 0x57, 0x3d,
  0x37, 0x14, 0x07, 0x3c, 0xf1, 0xd3, 0x43, 0x3d, 0x1c, 0x9a, 0x6e, 0xbd,
  0xf6, 0xd4, 0xff, 0xff, 0x04, 0x00, 0x00, 0x00, 0x20, 0x00, 0x00, 0x00,
  0x64, 0x8e, 0x5e, 0x3d, 0x08, 0xa0, 0x51, 0x3d, 0x19, 0x7b, 0x39, 0xbd,
  0x2f, 0xd7, 0x0b, 0x3d, 0x00, 0x00, 0x00, 0x00, 0xde, 0xa6, 0xc3, 0x3d,
  0xd2, 0xfc, 0x02, 0x3c, 0xd3, 0xb8, 0x62, 0x3d, 0x22, 0xd5, 0xff, 0xff,
  0x04, 0x00, 0x00, 0x00, 0x10, 0x00, 0x00, 0x00, 0x29, 0x1a, 0x55, 0x3d,
  0xd0, 0x46, 0x6a, 0x3d, 0x05, 0xff, 0x40, 0xbd, 0x5f, 0xca, 0x65, 0x3b,
  0x3e, 0xd5, 0xff, 0xff, 0x04, 0x00, 0x00, 0x00, 0x04, 0x00, 0x00, 0x00,
  0x14, 0xbc, 0xd8, 0x3c, 0x4e, 0xd5, 0xff, 0xff, 0x04, 0x00, 0x00, 0x00,
  0x00, 0x20, 0x00, 0x00, 0x5e, 0xdd, 0x35, 0xbd, 0x7a, 0x02, 0x2f, 0xbd,
  0x7b, 0x20, 0x2e, 0x3d, 0x3f, 0x97, 0x81, 0x3e, 0x49, 0xe8, 0x48, 0x3e,
  0x6c, 0xb1, 0xad, 0x3d, 0xee, 0x9f, 0x57, 0xbd, 0x09, 0x45, 0xdf, 0xbd,
  0x09, 0xca, 0x84, 0x3e, 0x4f, 0x2a, 0x46, 0xbe, 0xe0, 0x8e, 0x5e, 0x3c,
  0xf8, 0xa0, 0xc0, 0x3d, 0x6f, 0xff, 0x5d, 0xbd, 0xbc, 0xf9, 0x02, 0xbd,
  0xc1, 0xa7, 0x3d, 0x3e, 0xf1, 0x05, 0xd1, 0x3d, 0x13, 0xd9, 0x03, 0x3b,
  0xc4, 0xdf, 0x66, 0xbe, 0x38, 0x86, 0x85, 0x3e, 0x58, 0x85, 0x32, 0x3e,
  0x83, 0x89, 0x0b, 0x3e, 0x48, 0x04, 0xcd, 0xbd, 0xbf, 0x14, 0xca, 0x3d,
  0x13, 0x5e, 0x85, 0xbd, 0xfb, 0x23, 0x47, 0xbe, 0xe4, 0x0a, 0x39, 0x3e,
  0x1e, 0xe8, 0x18, 0xbe, 0xd3, 0x15, 0x60, 0x3e, 0xbb, 0x8d, 0x01, 0x3d,
  0x5a, 0x37, 0xcc, 0x3d, 0xed, 0xa0, 0xbe, 0x3d, 0x8a, 0x11, 0xd9, 0x3d,
  0x83, 0xcf, 0x4e, 0x3e, 0x26, 0xb6, 0x62, 0xbd, 0x7a, 0x47, 0xe7, 0xbb,
  0x0d, 0xcb, 0x85, 0xbe, 0x73, 0xf0, 0x86, 0xbe, 0x4d, 0xdd, 0x31, 0xbe,
  0x2a, 0x2c, 0x2c, 0x3d, 0x44, 0xf0, 0x0f, 0x3c, 0xc1, 0x1c, 0x64, 0x3d,
  0x3a, 0xdc, 0x0d, 0xbe, 0xc9, 0x62, 0x40, 0xbe, 0x02, 0x0f, 0xf1, 0xbc,
  0x70, 0x6e, 0x09, 0xbe, 0x9d, 0x0c, 0x00, 0x3e, 0x31, 0x84, 0x0d, 0xbe,
  0x1d, 0x80, 0xc8, 0xbd, 0x17, 0xf4, 0x52, 0xbd, 0x23, 0xc0, 0xbb, 0xbd,
  0x03, 0xaf, 0x52, 0xbe, 0x2d, 0xb2, 0xfd, 0xbd, 0x81, 0x28, 0x28, 0x3e,
  0x6c, 0xe3, 0x4a, 0xbe, 0x99, 0xe4, 0x4d, 0x3e, 0xfe, 0x16, 0xee, 0x3d,
  0x9d, 0x11, 0x51, 0x3e, 0xe1, 0x44, 0x23, 0x3e, 0x34, 0x5e, 0x82, 0xbe,
  0xd9, 0x84, 0x14, 0x3b, 0x1a, 0x9d, 0x22, 0xbe, 0x6e, 0xee, 0x4e, 0x3e,
  0x01, 0x0d, 0xa1, 0x3d, 0x42, 0xe8, 0x24, 0xbe, 0x82, 0x16, 0x50, 0xbe,
  0x99, 0x97, 0x8a, 0x3c, 0x67, 0x9d, 0xfb, 0x3d, 0x52, 0x67, 0x2d, 0xbe,
  0x17, 0xd4, 0x60, 0xbe, 0x6b, 0x54, 0x3c, 0x3d, 0xee, 0x5c, 0x55, 0xbe,
  0x63, 0x3f, 0x2d, 0x3e, 0xf5, 0x08, 0x38, 0xbe, 0x81, 0xce, 0x02, 0xbd,
  0xfe, 0x92, 0xdd, 0xbd, 0xad, 0x72, 0x65, 0xbd, 0xcd, 0xec, 0x50, 0x3e,
  0x6e, 0x8e, 0xf5, 0x3c, 0xe8, 0x48, 0x90, 0xbe, 0xb1, 0x85, 0x4a, 0x3e,
  0x20, 0x1e, 0x91, 0x3d, 0x74, 0xc6, 0xca, 0x3c, 0x62, 0x8c, 0x07, 0xbe,
  0x1d, 0xe2, 0x2a, 0x3e, 0xd9, 0xd7, 0xf0, 0xbd, 0xb6, 0xf9, 0x12, 0xbe,
  0xac, 0xe4, 0x60, 0xbd, 0x1b, 0x77, 0xce, 0x3d, 0x0d, 0xc2, 0x97, 0xbe,
  0xa0, 0x21, 0x8e, 0xbe, 0x5a, 0xe9, 0x3a, 0x3d, 0x17, 0x05, 0x16, 0x3e,
  0xfd, 0xbe, 0x2c, 0xbd, 0x97, 0xaf, 0x27, 0xbe, 0xdb, 0x84, 0x64, 0xbe,
  0x17, 0xf2, 0x27, 0xbe, 0xf9, 0x44, 0xaf, 0x3d, 0x0a, 0xdc, 0x26, 0x3e,
  0xef, 0x18, 0x4e, 0x3e, 0x85, 0xcf, 0x27, 0xbe, 0x2f, 0xec, 0x29, 0x3e,
  0xfb, 0x68, 0x1d, 0x3e, 0x49, 0xc8, 0x41, 0x3d, 0x2a, 0xb2, 0x24, 0x3d,
  0xdc, 0x4d, 0x74, 0xbd, 0x0e, 0xcd, 0x6f, 0xbc, 0x1c, 0xd3, 0x31, 0xbd,
  0x98, 0x22, 0xca, 0x3c, 0x90, 0x8d, 0x8f, 0xbd, 0x77, 0xb0, 0x83, 0x3c,
  0x36, 0x3a, 0x0f, 0x3e, 0x23, 0x38, 0x40, 0xbe, 0x40, 0xbd, 0x21, 0x3e,
  0x7f, 0x40, 0x66, 0xbd, 0x46, 0x84, 0x85, 0xbb, 0x54, 0x71, 0x4a, 0x3e,
  0x67, 0xc7, 0x06, 0x3e, 0xa3, 0x64, 0xff, 0xbc, 0x07, 0xab, 0xf5, 0x3d,
  0xb2, 0x7f, 0x50, 0xbd, 0x8d, 0x13, 0x11, 0x3d, 0xf3, 0x13, 0x1f, 0x3e,
  0xbb, 0x17, 0x14, 0x3e, 0xac, 0x6e, 0xa8, 0xbd, 0xb4, 0xaf, 0x80, 0xbe,
  0x74, 0x36, 0x05, 0xbc, 0x3f, 0x58, 0xd5, 0x3d, 0x77, 0x63, 0x14, 0xbe,
  0x23, 0xa1, 0x0a, 0x3e, 0xc8, 0x88, 0xa3, 0xbd, 0x58, 0x23, 0x11, 0xbd,
  0x87, 0xd3, 0x88, 0xbe, 0xae, 0x32, 0x03, 0xbe, 0x3d, 0x0e, 0x5d, 0x3e,
  0x7d, 0x53, 0x5d, 0x3d, 0xa9, 0x5e, 0xb3, 0x3c, 0x79, 0xfd, 0x2a, 0x3e,
  0x17, 0x44, 0xcd, 0xbd, 0x5a, 0x24, 0x79, 0x3c, 0xf5, 0xd6, 0xa3, 0xbd,
  0x61, 0x3a, 0x59, 0xbe, 0xd6, 0xdd, 0x6a, 0x3e, 0xd7, 0x1e, 0xfd, 0x3d,
  0xc5, 0xee, 0x95, 0xbd, 0xf1, 0xed, 0x20, 0xbe, 0xa7, 0xb6, 0xa3, 0xbd,
  0x9c, 0x3e, 0x50, 0x3e, 0xce, 0xf5, 0x5b, 0x3e, 0x28, 0x3e, 0x91, 0x3d,
  0x4a, 0xeb, 0x24, 0x3d, 0xdf, 0x86, 0x5f, 0xbe, 0x6c, 0x04, 0xae, 0x3d,
  0xa4, 0x85, 0x3b, 0x3e, 0x7d, 0xe5, 0xbb, 0xbd, 0x83, 0x35, 0x22, 0xbe,
  0x02, 0x75, 0x5a, 0x3e, 0xd6, 0x88, 0x35, 0xbe, 0x59, 0x4d, 0x78, 0x3e,
  0x7e, 0x72, 0xe0, 0xbc, 0x4a, 0xe2, 0x66, 0xbd, 0x93, 0xbc, 0xdb, 0xbd,
  0xe8, 0x95, 0xf2, 0x3d, 0x30, 0xa5, 0x52, 0x3e, 0x60, 0xa8, 0x11, 0x3e,
  0x01, 0x92, 0x5b, 0xbe, 0xd0, 0xc4, 0x39, 0xbc, 0x47, 0x53, 0x3f, 0xbe,
  0x0e, 0x52, 0x23, 0x3e, 0x8e, 0xa9, 0x2e, 0x3e, 0x68, 0xf8, 0x96, 0x3b,
  0xb1, 0x4d, 0xd7, 0xbd, 0x57, 0xb3, 0x04, 0x3e, 0x03, 0xfb, 0x88, 0xbe,
  0x33, 0x69, 0xc8, 0x3d, 0x3d, 0xec, 0x90, 0xbc, 0x83, 0x6c, 0x96, 0xbd,
  0x4d, 0x48, 0x4d, 0x3d, 0x24, 0x15, 0x3e, 0x3e, 0xd3, 0x27, 0x4d, 0x3e,
  0x9e, 0xb3, 0x02, 0xbd, 0x20, 0x21, 0x15, 0x3e, 0x65, 0x95, 0x8a, 0x3d,
  0xab, 0xb5, 0x34, 0x3e, 0xce, 0xe5, 0x46, 0xbe, 0xe1, 0xb0, 0x58, 0x3d,
  0x85, 0x3f, 0x08, 0xbe, 0xbe, 0x95, 0xd1, 0xbd, 0x0d, 0x12, 0x3e, 0x3e,
  0x7d, 0xd4, 0x3a, 0xbe, 0x5e, 0xaa, 0x54, 0x3e, 0xdd, 0x53, 0xdb, 0x3d,
  0xaa, 0x9b, 0x90, 0x3d, 0xc9, 0x99, 0x36, 0x3e, 0xaa, 0x8b, 0x8f, 0x3d,
  0xa5, 0x05, 0xa9, 0xbd, 0x4a, 0x76, 0x4d, 0xbe, 0x6a, 0xba, 0x55, 0x3e,
  0xe7, 0xa2, 0xc1, 0xbd, 0xb5, 0x68, 0x6e, 0xbd, 0x16, 0x66, 0x4c, 0xbe,
  0xef, 0x74, 0xc0, 0x3d, 0x80, 0x08, 0x0f, 0xbd, 0x4b, 0xd6, 0x79, 0xbe,
  0xca, 0xf5, 0x01, 0xbe, 0x78, 0x24, 0x6e, 0xbe, 0x86, 0x91, 0x9a, 0x3d,
  0x19, 0x29, 0x9b, 0x3d, 0x45, 0xe2, 0x7f, 0xbd, 0xde, 0xd4, 0xc2, 0x3d,
  0x8c, 0xae, 0x3a, 0x3d, 0x54, 0xfa, 0x14, 0xbe, 0x36, 0xbb, 0xba, 0xbd,
  0x66, 0x9d, 0x7b, 0x3e, 0x37, 0x78, 0x2c, 0x3e, 0x68, 0x65, 0x0b, 0x3e,
  0x0a, 0x2b, 0xc4, 0x3d, 0x28, 0x87, 0x82, 0x3d, 0xda, 0xf1, 0x10, 0xbe,
  0x39, 0xc4, 0x24, 0xbe, 0xfe, 0x95, 0x3d, 0xbd, 0xdf, 0x6a, 0x9f, 0x3d,
  0x0f, 0x6c, 0x4b, 0x3e, 0x6c, 0xe1, 0x83, 0x3d, 0xdd, 0x71, 0xe5, 0x3d,
  0x0d, 0xfc, 0x31, 0x3e, 0x1a, 0x61, 0x4c, 0x3e, 0x16, 0xcf, 0x4f, 0xbe,
  0x2a, 0xac, 0x47, 0x3e, 0x45, 0xd4, 0x9f, 0xbc, 0x6e, 0x6d, 0x03, 0xbd,
  0x7d, 0xe5, 0x1f, 0xbe, 0x09, 0xb6, 0x84, 0xbe, 0x66, 0x23, 0x05, 0xbe,
  0x37, 0xac, 0xd1, 0xbd, 0x66, 0x82, 0x34, 0xbd, 0x13, 0x64, 0x6c, 0x3e,
  0x18, 0x65, 0xc4, 0x3c, 0x1b, 0x64, 0x22, 0x3e, 0x88, 0x8f, 0x04, 0x3e,
  0xda, 0x80, 0xf6, 0xbd, 0xb2, 0x80, 0x18, 0xbe, 0xf5, 0xa9, 0xa9, 0xbc,
  0xa1, 0xfa, 0xfb, 0xbd, 0x73, 0xf0, 0x8c, 0xbc, 0x84, 0x4a, 0x1a, 0xbe,
  0xc4, 0xc3, 0x1a, 0x3e, 0x3c, 0xbb, 0x0c, 0xbe, 0xde, 0x85, 0xc1, 0x3d,
  0x48, 0x75, 0xf4, 0x3d, 0xf2, 0x82, 0x8f, 0xbd, 0xc1, 0x27, 0x7a, 0xbd,
  0xdc, 0xd2, 0x85, 0x3b, 0x09, 0x78, 0x87, 0xbd, 0x74, 0xe5, 0x05, 0xbe,
  0x3a, 0xd5, 0x85, 0xbd, 0xc6, 0xc7, 0xf2, 0x3d, 0xb8, 0x50, 0xea, 0xbd,
  0x9d, 0xcd, 0x87, 0xbe, 0x36, 0x61, 0x5d, 0xbe, 0xf4, 0xae, 0x26, 0x3e,
  0xa2, 0x46, 0x40, 0x3e, 0x5d, 0x5c, 0x54, 0xbe, 0xae, 0xae, 0x9e, 0xbc,
  0x7c, 0xc1, 0xdc, 0x3d, 0xf3, 0xfb, 0x44, 0xbe, 0xd2, 0x9d, 0x65, 0x3e,
  0x4e, 0x2e, 0x23, 0x3e, 0xf9, 0x1e, 0x29, 0x3e, 0xc3, 0x65, 0x45, 0x3d,
  0x08, 0x0f, 0xb2, 0x3d, 0x86, 0x5e, 0xa2, 0xbd, 0xa6, 0x63, 0xf0, 0xbc,
  0x7b, 0x76, 0x1e, 0x3e, 0x26, 0xee, 0x01, 0xbe, 0xe2, 0x47, 0xa7, 0x3d,
  0x4c, 0xa3, 0xb4, 0x3d, 0x78, 0xef, 0x7e, 0xbe, 0xec, 0x32, 0xb9, 0xbd,
  0x65, 0x4e, 0xb8, 0xbd, 0x94, 0xcd, 0x40, 0xbe, 0x30, 0xf9, 0xd6, 0x3d,
  0x0a, 0xa3, 0x09, 0x3e, 0x88, 0xf8, 0xe0, 0x3d, 0x40, 0xef, 0xdb, 0x3d,
  0xe3, 0xad, 0xf3, 0xbc, 0xfe, 0x18, 0x2c, 0xbe, 0x16, 0x02, 0x8a, 0xbe,
  0xfd, 0x62, 0x4f, 0xbe, 0x2b, 0xfe, 0xdb, 0x3d, 0x1b, 0x06, 0x49, 0xbe,
  0x5d, 0xf8, 0x51, 0xbe, 0xeb, 0x0a, 0x86, 0x3e, 0x9a, 0x57, 0x41, 0xbe,
  0xb1, 0x13, 0x1a, 0x3e, 0xde, 0xe6, 0x60, 0xbe, 0xe2, 0x71, 0x6b, 0x3c,
  0x3d, 0x39, 0x1a, 0x3d, 0x04, 0x39, 0x83, 0xbd, 0x24, 0xe9, 0x1f, 0x3e,
  0x4f, 0x39, 0x39, 0xbe, 0x36, 0xaf, 0x31, 0xbe, 0x1d, 0xa8, 0x23, 0x3e,
  0x00, 0xae, 0x23, 0x3d, 0xec, 0xf8, 0xd2, 0x3d, 0xd5, 0x1a, 0x9f, 0x3d,
  0xda, 0x53, 0x35, 0xbe, 0xc6, 0x05, 0xa0, 0x3e, 0x5b, 0x79, 0xf0, 0x3d,
  0x46, 0x9c, 0x45, 0xbd, 0xae, 0x84, 0xff, 0xbc, 0xf0, 0x56, 0x63, 0xbd,
  0x5d, 0xa5, 0x55, 0xbe, 0xc6, 0x36, 0xdb, 0xbd, 0x88, 0xdd, 0xcd, 0x3d,
  0xaa, 0xf4, 0x24, 0x3e, 0xa1, 0x52, 0x53, 0x3d, 0x54, 0x00, 0x00, 0xbc,
  0x33, 0x26, 0x63, 0x3c, 0x8c, 0xc2, 0x14, 0x3e, 0x01, 0x17, 0xcb, 0xbd,
  0xa8, 0x90, 0xd1, 0x3d, 0xf8, 0xa0, 0x46, 0xbd, 0x06, 0xe0, 0x0b, 0xbe,
  0xfb, 0xc3, 0x44, 0xbd, 0xd4, 0xb4, 0x92, 0xbd, 0x69, 0x1c, 0x7a, 0xbe,
  0xa6, 0xb9, 0xf1, 0xbd, 0x1f, 0xb0, 0x38, 0xbd, 0x67, 0xd9, 0x2c, 0xbe,
  0x12, 0x4b, 0xd3, 0x3d, 0x38, 0x94, 0x77, 0x3e, 0xfc, 0xd6, 0x02, 0x3e,
  0x28, 0xe8, 0x04, 0xbe, 0x85, 0x3d, 0x26, 0x3e, 0x96, 0x80, 0xa5, 0x3d,
  0x1f, 0x27, 0x5d, 0xbb, 0xa5, 0x42, 0xbc, 0xbd, 0x0e, 0x25, 0x7f, 0x3d,
  0xa9, 0x47, 0x74, 0xba, 0x4b, 0x9b, 0x33, 0x3e, 0x24, 0x5a, 0xdd, 0xbc,
  0x15, 0xf3, 0xe4, 0x3c, 0x25, 0xa4, 0xaf, 0xbc, 0x22, 0x05, 0x81, 0xbe,
  0xa4, 0x8b, 0x17, 0xbe, 0x27, 0x94, 0x86, 0xbc, 0x89, 0x43, 0xdf, 0x3d,
  0x99, 0x12, 0x9e, 0x3c, 0x7d, 0xd3, 0x40, 0xbe, 0x52, 0x81, 0x3b, 0x3d,
  0xcb, 0x80, 0x5c, 0xbe, 0x4e, 0x90, 0x05, 0x3e, 0x58, 0xef, 0x4b, 0xbc,
  0x86, 0x9d, 0x2e, 0x3e, 0xa2, 0x2b, 0x97, 0xbd, 0x2e, 0x82, 0x15, 0xbe,
  0x66, 0xa6, 0x57, 0x3d, 0x96, 0x82, 0x90, 0x3e, 0x67, 0x5e, 0x3b, 0xbe,
  0x0d, 0xe4, 0x37, 0xbe, 0x9b, 0x46, 0x34, 0x3e, 0x1f, 0xfe, 0xed, 0x3d,
  0xe6, 0xbb, 0x2d, 0x3e, 0x6d, 0x7d, 0x02, 0xbe, 0x1a, 0x72, 0x59, 0x3e,
  0xed, 0x34, 0x48, 0x3e, 0x56, 0xcd, 0x8a, 0xbd, 0xfe, 0x5a, 0x30, 0x3c,
  0xed, 0x82, 0x69, 0x3e, 0x32, 0x29, 0xac, 0x3d, 0x21, 0x95, 0x3a, 0x3e,
  0xb9, 0x6f, 0x27, 0xbe, 0x91, 0x83, 0x2d, 0x3e, 0xdd, 0xb5, 0x15, 0xbe,
  0x83, 0xab, 0x29, 0xbe, 0x78, 0x71, 0x30, 0x3e, 0x02, 0x79, 0x13, 0xbd,
  0xde, 0x49, 0x41, 0xbe, 0x8b, 0x71, 0x7b, 0xbd, 0x88, 0x84, 0xa0, 0x3d,
  0x69, 0xb3, 0x9b, 0x3e, 0xeb, 0xf2, 0x96, 0x3e, 0xb3, 0x5b, 0xe2, 0x3a,
  0x7e, 0x4c, 0xfa, 0xbd, 0x0f, 0xfc, 0xaa, 0x3d, 0xcd, 0xc7, 0x09, 0x3e,
  0x1f, 0xa8, 0x7c, 0x3e, 0xd3, 0x39, 0x5a, 0x3d, 0x25, 0x66, 0x78, 0x3e,
  0xd7, 0x55, 0x1b, 0x3e, 0xb9, 0xdd, 0x02, 0x3d, 0x35, 0x5c, 0x19, 0xbe,
  0x87, 0xb2, 0x20, 0xbd, 0x34, 0x27, 0x86, 0x3c, 0x9e, 0x9b, 0x63, 0xbe,
  0xfd, 0x23, 0x95, 0x3d, 0x43, 0x33, 0x7d, 0xbe, 0x87, 0xcc, 0xba, 0xbd,
  0x25, 0xdf, 0x5d, 0xbe, 0xe4, 0x64, 0x26, 0xbd, 0x06, 0xfe, 0x35, 0xbe,
  0xcd, 0x59, 0x70, 0x3a, 0xbd, 0xd9, 0x16, 0x3d, 0xce, 0xcc, 0xde, 0xbd,
  0x58, 0xa7, 0xf7, 0x3b, 0x6c, 0xd6, 0x17, 0xbe, 0xa9, 0x7e, 0x09, 0xbe,
  0xb5, 0x7c, 0x7a, 0x3d, 0x11, 0xf3, 0x55, 0x3e, 0x6c, 0xd6, 0xe3, 0x3d,
  0xd1, 0x86, 0x6d, 0x3e, 0xfe, 0xfa, 0x63, 0xbe, 0x59, 0xc1, 0x5a, 0x3e,
  0x5f, 0x89, 0xb5, 0x3c, 0x17, 0x84, 0xbe, 0xbb, 0x1d, 0xcd, 0xd5, 0xbd,
  0x7f, 0xde, 0xb0, 0xbd, 0x78, 0x4a, 0x26, 0x3e, 0x1d, 0x10, 0x9a, 0x3d,
  0xe3, 0x29, 0x44, 0xbe, 0xc5, 0x43, 0xe8, 0x3d, 0x4f, 0x7d, 0xa0, 0x3d,
  0xc4, 0xaf, 0x82, 0x3e, 0x77, 0x23, 0xd5, 0xbd, 0x6e, 0x71, 0x7a, 0x3e,
  0x9f, 0xfb, 0x3b, 0xbd, 0x9f, 0xd4, 0xf7, 0xbb, 0x1d, 0x99, 0x9a, 0x3d,
  0xce, 0x2b, 0xa3, 0x3d, 0x61, 0x90, 0x5f, 0xbe, 0x35, 0x3e, 0xb9, 0x3c,
  0xdf, 0xfe, 0x0a, 0xbb, 0x8d, 0x99, 0x07, 0x3d, 0xdd, 0x84, 0x8a, 0xbe,
  0x49, 0x55, 0x5a, 0xbe, 0x1d, 0x2c, 0x6f, 0x3e, 0xc9, 0xe7, 0x8d, 0xbd,
  0x53, 0x17, 0x68, 0x3c, 0x19, 0xa4, 0xe9, 0x3d, 0x3a, 0xb1, 0x7f, 0x3d,
  0x00, 0xbd, 0xfd, 0xbd, 0x88, 0xec, 0x90, 0xbd, 0xa1, 0x8a, 0x96, 0x3c,
  0x4e, 0xb5, 0x02, 0x3d, 0x40, 0xe7, 0xd7, 0x3d, 0xa7, 0xa7, 0x23, 0xbe,
  0x9a, 0xc4, 0x66, 0xbe, 0x5d, 0xca, 0x8c, 0xbe, 0x77, 0x51, 0xc0, 0x3d,
  0x11, 0xf0, 0x88, 0x3e, 0x63, 0x9a, 0x79, 0x3e, 0xe3, 0xdb, 0x97, 0x3d,
  0xec, 0x30, 0xd9, 0x3d, 0x2e, 0xdc, 0x7c, 0x3e, 0x9e, 0x7e, 0x32, 0xbe,
  0x0f, 0xfb, 0xb8, 0x3d, 0x41, 0x1d, 0xe1, 0x3d, 0x8b, 0x0e, 0x4c, 0xbe,
  0xa5, 0x66, 0x72, 0x3e, 0x07, 0xd0, 0x08, 0x3d, 0x62, 0x9e, 0x63, 0xbe,
  0xa8, 0x4f, 0x2a, 0x3e, 0x86, 0x3e, 0x8c, 0x3d, 0x76, 0xc4, 0x75, 0xbe,
  0xe8, 0xd0, 0x4c, 0x3e, 0x7c, 0x1b, 0x7d, 0xbd, 0xf5, 0x66, 0x08, 0x3d,
  0x89, 0xb8, 0x47, 0x3e, 0xdc, 0x31, 0x85, 0x3e, 0x4e, 0xb3, 0x54, 0xbe,
  0xec, 0x42, 0x59, 0x3d, 0x30, 0x76, 0x57, 0x3d, 0xc9, 0x97, 0x76, 0xbe,
  0x93, 0x9c, 0xc2, 0x3d, 0x33, 0x2c, 0x6c, 0xbe, 0xdc, 0xf3, 0x5b, 0x3e,
  0x9f, 0x9a, 0xa1, 0x3d, 0x42, 0x3d, 0xdf, 0xbd, 0xb7, 0xb3, 0x93, 0xbd,
  0x98, 0xc3, 0x03, 0x3e, 0xaa, 0xaa, 0xad, 0xbd, 0x5b, 0x79, 0x37, 0x3d,
  0x5c, 0x48, 0xa8, 0x3d, 0xa2, 0x05, 0xd3, 0xbd, 0x43, 0xb1, 0xe6, 0xbd,
  0xae, 0x5b, 0xd3, 0xbc, 0xe9, 0xb9, 0x53, 0xbe, 0x03, 0x34, 0x3f, 0xbe,
  0xfe, 0x8e, 0x6f, 0x3e, 0xc8, 0xdc, 0x57, 0xbe, 0x45, 0x6e, 0x1b, 0xbe,
  0xf6, 0x98, 0x5c, 0xbc, 0xab, 0x3b, 0x93, 0xbd, 0x15, 0x11, 0x25, 0xbd,
  0xac, 0x68, 0xf9, 0x3d, 0x53, 0xaf, 0x51, 0xbe, 0x38, 0x1f, 0xb0, 0xbd,
  0x3a, 0x72, 0x6f, 0xbd, 0x6c, 0xaa, 0x41, 0xbe, 0x85, 0xb2, 0x3a, 0xbe,
  0x60, 0x73, 0xd7, 0x3d, 0x1b, 0xb5, 0xda, 0x3c, 0xab, 0x70, 0x45, 0x3e,
  0x88, 0xa5, 0x0e, 0x3e, 0xd0, 0x97, 0x87, 0x3e, 0x65, 0x82, 0x83, 0xbd,
  0xd1, 0x33, 0xa8, 0xbd, 0x37, 0x76, 0xb3, 0x3d, 0xb4, 0xd7, 0x3f, 0xbe,
  0xa5, 0x8c, 0x3c, 0xbe, 0x47, 0xa9, 0x10, 0xbe, 0xdc, 0xe3, 0x76, 0xbd,
  0x81, 0x6d, 0xd6, 0x3c, 0x21, 0xca, 0x79, 0x3e, 0xda, 0x9f, 0xb9, 0xbd,
  0xb2, 0x28, 0xd3, 0x3d, 0xa0, 0x70, 0x9e, 0x3d, 0xa9, 0x93, 0xbc, 0xbc,
  0xb0, 0x23, 0x7f, 0xbe, 0x7e, 0xa9, 0x54, 0xbd, 0xa1, 0x56, 0x1e, 0x3e,
  0xa5, 0x97, 0x0d, 0xbd, 0xb7, 0xf4, 0x49, 0x3e, 0x19, 0x98, 0x63, 0xbe,
  0x84, 0x1c, 0x90, 0x3d, 0x4b, 0x43, 0x41, 0x3e, 0x9a, 0xea, 0xa7, 0xbd,
  0xfb, 0x56, 0xc7, 0xbc, 0x3f, 0xda, 0x37, 0x3a, 0xb1, 0xaa, 0x53, 0x3e,
  0x64, 0x66, 0x79, 0xbe, 0x5e, 0xcb, 0x1d, 0xbe, 0x96, 0x19, 0x27, 0xbd,
  0x80, 0x1d, 0xf2, 0x3d, 0x5c, 0x5b, 0x54, 0x3d, 0xba, 0xab, 0x00, 0x3e,
  0xe1, 0x38, 0x07, 0x3c, 0xc6, 0x0a, 0xb1, 0x3d, 0xc1, 0x1d, 0x15, 0xbb,
  0x74, 0x36, 0x1b, 0xbd, 0x04, 0xb8, 0x1d, 0x3e, 0x3e, 0x3d, 0xc1, 0xbd,
  0x5d, 0xa0, 0xaa, 0xbd, 0x67, 0x25, 0x70, 0xbe, 0x7d, 0xd1, 0x04, 0x3d,
  0xcf, 0xa2, 0x78, 0xbe, 0xce, 0xab, 0xab, 0xbd, 0x85, 0x29, 0x7c, 0xbe,
  0x4c, 0x6d, 0xd8, 0x3d, 0xcd, 0x48, 0x1f, 0xbe, 0x24, 0x76, 0x86, 0x3d,
  0xb9, 0x9d, 0x7a, 0xbe, 0x4d, 0x3e, 0x57, 0x3e, 0xd0, 0x67, 0xa6, 0xbb,
  0x5c, 0xc5, 0x44, 0x3e, 0xfc, 0xd6, 0x52, 0xbe, 0xd2, 0xd5, 0x00, 0xbe,
  0x00, 0xfd, 0x53, 0x3d, 0x0b, 0x48, 0xbc, 0xba, 0x0a, 0x08, 0xc0, 0xbd,
  0x40, 0x6f, 0x3a, 0xbe, 0xde, 0xb1, 0xa3, 0x3d, 0x4d, 0xed, 0xa9, 0x3d,
  0x3c, 0x98, 0xed, 0xbd, 0xf2, 0x45, 0x75, 0x3e, 0x39, 0x45, 0x74, 0xbd,
  0x90, 0x5d, 0x4e, 0xbe, 0xc9, 0x90, 0x41, 0x3e, 0x52, 0x69, 0x27, 0x3e,
  0x14, 0xc3, 0x3a, 0xbe, 0xf1, 0x2b, 0x21, 0x3e, 0xc2, 0x1c, 0x35, 0xbe,
  0x06, 0x47, 0x36, 0xbe, 0xb8, 0xb3, 0xf5, 0xbd, 0x57, 0xd6, 0xb2, 0xbd,
  0xc0, 0x29, 0x6a, 0xbe, 0xf4, 0x6f, 0x03, 0xbe, 0xe5, 0xfb, 0x13, 0xbe,
  0x55, 0x9d, 0x82, 0x3c, 0xbd, 0x4a, 0x52, 0x3d, 0x1f, 0xed, 0xa0, 0xbc,
  0xd5, 0x07, 0x0e, 0xbe, 0x63, 0x22, 0x7d, 0x3d, 0xfc, 0x06, 0x24, 0xbe,
  0x1c, 0x7f, 0x07, 0x3e, 0x52, 0x78, 0x06, 0xbe, 0xeb, 0x68, 0x88, 0x3e,
  0x78, 0x5c, 0xd1, 0x3d, 0x84, 0x19, 0x7b, 0x3e, 0x17, 0xd5, 0xd1, 0x3d,
  0x1e, 0xe2, 0xd5, 0x3d, 0xc0, 0x0c, 0x0c, 0xbc, 0x59, 0x90, 0xd1, 0xbb,
  0x3c, 0xb4, 0x63, 0x3e, 0x98, 0xb0, 0x9e, 0x3d, 0xac, 0xa7, 0xfe, 0x3b,
  0x8c, 0xf0, 0x65, 0xbe, 0xc0, 0x7d, 0x7a, 0x3e, 0x65, 0x3a, 0xa4, 0xbe,
  0x40, 0xa5, 0x5b, 0x3e, 0x78, 0xcd, 0xa7, 0x3d, 0xf2, 0xda, 0xc3, 0x3d,
  0x54, 0x47, 0xc0, 0xbd, 0x7a, 0x59, 0x0f, 0xbe, 0xf5, 0xe4, 0xf6, 0xbd,
  0x2e, 0x31, 0xac, 0xbe, 0x82, 0xac, 0xe8, 0xbd, 0x55, 0xb2, 0x2a, 0x3e,
  0x8a, 0x6d, 0x42, 0xbc, 0xb7, 0x2e, 0x5c, 0xbe, 0xc0, 0x00, 0x1b, 0xbc,
  0x89, 0x22, 0x12, 0x3e, 0x05, 0x6e, 0x85, 0x3e, 0x35, 0xf8, 0xdc, 0x3d,
  0x38, 0x3b, 0xf0, 0xbd, 0x61, 0x49, 0xce, 0x3d, 0xff, 0xce, 0x4c, 0xbe,
  0x8a, 0x9b, 0x1e, 0x3e, 0x7f, 0x75, 0x5e, 0x3e, 0xc6, 0x75, 0x8c, 0x3d,
  0xa4, 0x73, 0xcc, 0xbc, 0x11, 0xdf, 0x98, 0x3d, 0x63, 0xa6, 0x3a, 0x3d,
  0x51, 0xbd, 0xb5, 0xbc, 0x56, 0x3d, 0x21, 0xbe, 0xa6, 0x71, 0x33, 0xbe,
  0x00, 0xf9, 0xa4, 0x3e, 0x19, 0x83, 0x8d, 0xbb, 0x1e, 0xbb, 0xd3, 0xbd,
  0xf2, 0x8f, 0x57, 0x3d, 0x07, 0x09, 0x17, 0xbe, 0xc8, 0x62, 0x8a, 0xbd,
  0xf6, 0x67, 0xec, 0xbe, 0xa6, 0x39, 0x73, 0xbe, 0x9e, 0x4f, 0xca, 0xbd,
  0x35, 0xe4, 0xb6, 0xbd, 0x43, 0x66, 0x8f, 0x3e, 0x9f, 0x2c, 0x8a, 0x3e,
  0x44, 0x55, 0x30, 0x3e, 0x72, 0xc7, 0x5e, 0x3e, 0x30, 0xe4, 0x9d, 0x3e,
  0xf4, 0xd6, 0x1b, 0x3e, 0x71, 0x19, 0x33, 0xbe, 0xd0, 0xf0, 0x58, 0xbd,
  0x81, 0x3d, 0x02, 0xbe, 0x58, 0x3d, 0x88, 0x3c, 0x73, 0x3e, 0x7e, 0x3e,
  0xbc, 0x66, 0xcf, 0x3d, 0x57, 0x4e, 0xe2, 0xbd, 0xed, 0x1c, 0x8a, 0xbd,
  0xf8, 0x9c, 0x5e, 0xbe, 0x5e, 0xa0, 0x80, 0xbe, 0x58, 0x87, 0xf0, 0xbc,
  0x4d, 0x9f, 0x6d, 0x3e, 0x02, 0x23, 0x9f, 0xbc, 0x8e, 0xd0, 0x55, 0xbe,
  0x29, 0x91, 0x09, 0xbe, 0x8a, 0x10, 0x9f, 0x3d, 0x6a, 0xe6, 0xac, 0x3c,
  0x67, 0x54, 0x2b, 0x3e, 0xf2, 0xc0, 0x07, 0xbe, 0x23, 0x07, 0xf8, 0x3d,
  0x16, 0x17, 0x1d, 0xbe, 0x36, 0xb4, 0x7d, 0xbe, 0x4a, 0x5e, 0x47, 0xbe,
  0xbd, 0x18, 0x27, 0x3d, 0x34, 0xc6, 0x61, 0xba, 0xe9, 0x0d, 0x2b, 0x3e,
  0x1e, 0x66, 0x8a, 0x3e, 0x57, 0x4a, 0x19, 0xbe, 0x5b, 0xbb, 0xed, 0xbc,
  0x12, 0x1f, 0x06, 0xbe, 0x91, 0x6d, 0x1e, 0xbe, 0xbc, 0x9a, 0xec, 0x3d,
  0x48, 0xb8, 0x2a, 0x3e, 0x0f, 0xdb, 0x41, 0x3e, 0x77, 0x68, 0x3f, 0x3d,
  0xd5, 0xfe, 0x43, 0xbe, 0x6a, 0x1a, 0x57, 0x3e, 0x2c, 0xd7, 0x3f, 0x3d,
  0x0b, 0x51, 0x3b, 0x3e, 0xcd, 0x02, 0x92, 0xbb, 0x05, 0x1a, 0x13, 0x3e,
  0x1c, 0xcd, 0x5d, 0x3e, 0x51, 0x9d, 0x2c, 0xbd, 0xb6, 0x6b, 0x2c, 0xbe,
  0xa1, 0x6c, 0x6e, 0xbe, 0x0c, 0x7c, 0x05, 0xbc, 0x8c, 0x0e, 0x50, 0x3e,
  0x57, 0x71, 0x48, 0xbd, 0xe3, 0x37, 0x6f, 0xbe, 0x86, 0xb3, 0x22, 0xbc,
  0xe7, 0x2c, 0x60, 0x3e, 0xf6, 0xf6, 0x83, 0xbe, 0xea, 0xac, 0x61, 0x3d,
  0x86, 0x5a, 0x6a, 0xbe, 0xe7, 0x35, 0x60, 0x3e, 0x83, 0x54, 0x7b, 0xbd,
  0x92, 0xa6, 0x83, 0x3e, 0x31, 0xa5, 0xa2, 0xbd, 0x97, 0x39, 0x1f, 0xbe,
  0x1c, 0xbe, 0x38, 0x3e, 0xae, 0x46, 0xd2, 0x3c, 0x65, 0x96, 0x6c, 0xbe,
  0xfc, 0x6b, 0xd0, 0x3d, 0x37, 0xb4, 0xb6, 0xbd, 0xab, 0x7b, 0xbb, 0x3c,
  0x64, 0x11, 0x3c, 0xbe, 0xe7, 0x8d, 0x8f, 0x3d, 0xfa, 0x52, 0xf1, 0xbd,
  0x8c, 0x54, 0x98, 0x3d, 0x60, 0x32, 0xbf, 0x3d, 0xc0, 0x59, 0x1a, 0xbe,
  0x35, 0x72, 0x33, 0x3e, 0x67, 0xf4, 0x48, 0x3e, 0xff, 0xd9, 0x37, 0x3e,
  0x55, 0x98, 0x28, 0xbe, 0xe3, 0xc8, 0x86, 0x3c, 0x7a, 0xd0, 0xa6, 0xbd,
  0xaa, 0xf8, 0xf5, 0x3d, 0x80, 0x41, 0x81, 0x3c, 0x86, 0x9a, 0xf3, 0xbd,
  0x61, 0x88, 0x55, 0x3e, 0x54, 0x6d, 0x27, 0x3d, 0x1d, 0x6b, 0x07, 0x3e,
  0xf1, 0xfe, 0xcd, 0x3b, 0x1a, 0xc0, 0x07, 0xbd, 0x72, 0x75, 0x44, 0xbe,
  0x71, 0x75, 0x13, 0x3d, 0x79, 0x16, 0x1f, 0xbd, 0x5e, 0x79, 0x32, 0xbd,
  0xe5, 0x57, 0x4b, 0xbe, 0x13, 0x71, 0x8c, 0xbe, 0xea, 0xb4, 0x82, 0xbe,
  0x83, 0x56, 0x3c, 0x3e, 0xa3, 0xc4, 0x4b, 0x3c, 0xc1, 0x0e, 0x4e, 0x3c,
  0x9d, 0x91, 0x37, 0x3e, 0xaa, 0xae, 0x4f, 0xbc, 0x24, 0xed, 0x18, 0x3e,
  0x07, 0x74, 0xec, 0xbd, 0xa5, 0x62, 0x81, 0xbc, 0x08, 0x41, 0xf7, 0x3d,
  0x48, 0x40, 0x81, 0xbe, 0xce, 0x51, 0x99, 0x3d, 0x60, 0xd3, 0x78, 0x3e,
  0xa9, 0x5b, 0x85, 0x3d, 0x38, 0xbd, 0x18, 0xbe, 0x12, 0xb5, 0x3d, 0xbe,
  0x35, 0x06, 0x5b, 0x3d, 0x2e, 0x36, 0x15, 0x3e, 0x88, 0xbc, 0x65, 0xbd,
  0xcd, 0xd6, 0x75, 0xbd, 0xed, 0x5b, 0x5a, 0x3e, 0x10, 0xb7, 0xdf, 0x3d,
  0xc6, 0x8e, 0x44, 0xbd, 0x04, 0x49, 0x83, 0xbe, 0xa7, 0x3a, 0x45, 0x3b,
  0xd9, 0x61, 0x2c, 0xbe, 0xd6, 0x61, 0xcd, 0xbd, 0x17, 0x25, 0x2f, 0xbe,
  0x1b, 0x99, 0x58, 0x3e, 0xfe, 0xa6, 0xc3, 0x3d, 0x50, 0x5d, 0xcf, 0xbd,
  0xda, 0x92, 0xd3, 0xbd, 0x47, 0xdc, 0x41, 0x3e, 0xe0, 0x35, 0x3a, 0xbe,
  0xc3, 0x75, 0xbb, 0x3d, 0x22, 0xb5, 0x3c, 0xbe, 0x84, 0xfe, 0xd4, 0x3d,
  0xe5, 0xe5, 0x54, 0x3e, 0x92, 0x60, 0x74, 0xbe, 0x84, 0x4a, 0x30, 0x3d,
  0xd4, 0xb4, 0x6b, 0xbe, 0x21, 0xb6, 0x09, 0xbe, 0x20, 0x51, 0x3d, 0xbe,
  0x20, 0x2f, 0x58, 0x3e, 0x74, 0x18, 0x24, 0xbd, 0x00, 0x70, 0x04, 0xbd,
  0x44, 0x0e, 0x35, 0x3d, 0x3d, 0x6a, 0xde, 0xbd, 0x7b, 0x36, 0x17, 0xbd,
  0x54, 0x5c, 0x20, 0x3e, 0x44, 0x53, 0x5a, 0x3e, 0x14, 0x7d, 0x7b, 0x3e,
  0x7f, 0xa5, 0x67, 0x3e, 0xec, 0xb2, 0x35, 0x3e, 0x92, 0xf9, 0xd8, 0x3d,
  0xb4, 0xfd, 0x63, 0xbe, 0x28, 0xf7, 0x4b, 0x3c, 0x55, 0x0f, 0x59, 0x3e,
  0x89, 0xae, 0x32, 0x3d, 0xe3, 0xd8, 0xfd, 0xbd, 0xf7, 0xa4, 0x47, 0xbb,
  0x2a, 0xa4, 0x1a, 0x3e, 0xec, 0x26, 0x1b, 0xbc, 0xe1, 0xe3, 0x02, 0xbe,
  0xc8, 0x48, 0xda, 0x3d, 0xa2, 0x31, 0x41, 0xbd, 0x55, 0x55, 0xaf, 0x3d,
  0xbe, 0xe9, 0x0a, 0xbc, 0xde, 0x7b, 0x69, 0xbc, 0xd2, 0xbd, 0x5a, 0x3e,
  0xe1, 0x2c, 0x13, 0x3e, 0xd5, 0x9a, 0x26, 0x3d, 0x3f, 0xab, 0x1c, 0x3c,
  0x10, 0x2e, 0x30, 0xbd, 0x55, 0x18, 0x28, 0x3e, 0x1a, 0x79, 0x0a, 0xbe,
  0x09, 0x4f, 0xbd, 0x3d, 0x49, 0x0d, 0x06, 0x3d, 0x8b, 0x6f, 0x72, 0x3e,
  0xa7, 0x8a, 0xb3, 0xbd, 0x44, 0x94, 0x7f, 0x3e, 0x75, 0x62, 0x83, 0x3e,
  0x97, 0xfa, 0x3a, 0xbe, 0x57, 0xc5, 0x8a, 0xbd, 0x3c, 0x61, 0xf1, 0xbb,
  0xd3, 0xc9, 0xbd, 0x3e, 0xa2, 0xcf, 0x32, 0x3e, 0xe3, 0x3d, 0x6b, 0xbe,
  0x2a, 0xa6, 0x92, 0x3d, 0x01, 0x15, 0x8e, 0xbd, 0x13, 0x4e, 0x38, 0x3e,
  0xda, 0x3e, 0x5f, 0xbd, 0x9e, 0xbf, 0x6d, 0xbe, 0xfb, 0x84, 0x17, 0xbe,
  0x54, 0xf6, 0x3d, 0xbe, 0xb7, 0x07, 0x86, 0x3e, 0x7f, 0x1e, 0xa4, 0x3c,
  0xdd, 0x39, 0x07, 0x3e, 0xb5, 0xab, 0x35, 0x3e, 0x64, 0x7f, 0x9b, 0xbd,
  0x65, 0xb0, 0x4a, 0x3e, 0xa2, 0x84, 0x0e, 0x3e, 0x76, 0x6b, 0x1a, 0x3e,
  0xc7, 0x6f, 0x26, 0xbe, 0xa7, 0xd5, 0x36, 0xbd, 0xf2, 0x70, 0xdd, 0x3d,
  0x2c, 0xb7, 0x48, 0xbe, 0x17, 0x10, 0xad, 0xbd, 0xe4, 0x9a, 0xe5, 0x3d,
  0x40, 0xa9, 0x27, 0xbe, 0x3b, 0x22, 0xcc, 0x3d, 0xab, 0x7b, 0xf3, 0xbc,
  0x14, 0xb8, 0x9c, 0x3c, 0xa3, 0xef, 0x22, 0xbe, 0x4c, 0xfc, 0x11, 0xbe,
  0x3c, 0x78, 0xf0, 0xbb, 0x87, 0x04, 0xc9, 0xbd, 0x9a, 0x34, 0x24, 0x3e,
  0x60, 0x6d, 0x16, 0x3e, 0xd8, 0xe1, 0x05, 0xbe, 0x0b, 0x61, 0x17, 0xbd,
  0xcc, 0x56, 0x05, 0x3e, 0x9f, 0x23, 0x3d, 0xbd, 0x98, 0xf6, 0x5c, 0xbe,
  0xbd, 0xf4, 0x1b, 0xbe, 0xfc, 0x15, 0x71, 0x3d, 0xd7, 0x13, 0xd8, 0x3d,
  0xee, 0xde, 0x7b, 0xbd, 0xc9, 0xf9, 0x3d, 0xbd, 0xeb, 0xb4, 0xd7, 0x3d,
  0xae, 0x60, 0x04, 0x3e, 0x9f, 0x43, 0x17, 0xbe, 0x67, 0x83, 0xff, 0x3d,
  0xbe, 0xf6, 0x81, 0xbe, 0x97, 0x4f, 0x26, 0xbe, 0x0f, 0x8a, 0x3c, 0xbe,
  0x8b, 0x05, 0x0a, 0xbe, 0xd0, 0x83, 0xe9, 0xbc, 0xbb, 0x5b, 0x4c, 0xbd,
  0x4a, 0x82, 0x7c, 0x3d, 0x2e, 0x04, 0xd1, 0xbd, 0x39, 0x02, 0x9f, 0x3e,
  0x4c, 0xe1, 0x5b, 0x3e, 0x6b, 0x00, 0x34, 0x3e, 0x9e, 0xc4, 0x66, 0x3d,
  0x96, 0x46, 0x1c, 0xbe, 0x50, 0x30, 0x1f, 0x3e, 0x85, 0x97, 0x4c, 0xbe,
  0x3a, 0xb0, 0xc2, 0xbd, 0xf1, 0x50, 0x6f, 0x3d, 0x1f, 0x95, 0xea, 0xbd,
  0x40, 0xd2, 0x6f, 0x3e, 0xfa, 0xa5, 0x5f, 0x3e, 0xc6, 0x6b, 0x2e, 0x3e,
  0x97, 0x6a, 0xfc, 0xbc, 0x2e, 0xd3, 0xe3, 0x3d, 0xfb, 0xb4, 0xf4, 0xbc,
  0xc5, 0x37, 0x1e, 0x3e, 0x92, 0x76, 0x93, 0x3d, 0x70, 0x4b, 0xd4, 0x3d,
  0x1f, 0x82, 0x98, 0x3e, 0x34, 0xc2, 0x99, 0x3e, 0x22, 0xb5, 0x77, 0x3e,
  0x15, 0xdf, 0x28, 0xbe, 0xfe, 0xb9, 0x15, 0xbe, 0x59, 0xdd, 0x22, 0xbd,
  0xbe, 0x32, 0x2d, 0x3e, 0x00, 0x24, 0xb1, 0xbd, 0xe6, 0x93, 0x80, 0xbe,
  0xfe, 0x62, 0x11, 0xbe, 0x57, 0xb5, 0x2e, 0xbd, 0x18, 0xa7, 0x22, 0xbe,
  0x87, 0xa3, 0xde, 0xbc, 0x8d, 0x58, 0x68, 0xbe, 0x56, 0xba, 0x70, 0xbd,
  0x53, 0x96, 0x18, 0x3e, 0x4e, 0x3c, 0x90, 0x3e, 0x0a, 0x21, 0x0b, 0x3e,
  0x34, 0x82, 0xd8, 0x3d, 0x07, 0x3a, 0xd0, 0x3d, 0x32, 0xa7, 0x97, 0xbe,
  0x25, 0x13, 0xee, 0xbd, 0x0c, 0xa8, 0x18, 0xbe, 0xe2, 0xfb, 0x5e, 0x3e,
  0x88, 0xe4, 0xd8, 0xbd, 0xaa, 0x3f, 0xc5, 0x3c, 0xb9, 0xa0, 0x8a, 0xbd,
  0x4b, 0x43, 0xea, 0xbd, 0x98, 0x8f, 0xf4, 0xbd, 0xe4, 0x7f, 0xc0, 0xbc,
  0x47, 0x2a, 0x7e, 0x3d, 0x24, 0xca, 0xfb, 0xbd, 0xe5, 0x0c, 0xe2, 0x3d,
  0x10, 0x1c, 0x6c, 0xbe, 0x72, 0xab, 0x6c, 0x3e, 0x5a, 0x41, 0x34, 0x3e,
  0x5b, 0x14, 0x04, 0x3d, 0xaa, 0x9b, 0xfa, 0xbd, 0x6c, 0x75, 0x93, 0x3d,
  0x14, 0x57, 0x33, 0xbe, 0xb6, 0x69, 0xb8, 0xbd, 0xa6, 0xd5, 0x0d, 0xbc,
  0x9d, 0x7f, 0x0b, 0x3d, 0xdf, 0x95, 0x8a, 0x3e, 0x9e, 0xb3, 0x65, 0xbd,
  0xc1, 0x3f, 0xb9, 0x3c, 0x7b, 0x4d, 0x69, 0x3c, 0x8e, 0x37, 0x93, 0x3d,
  0x21, 0x2d, 0xf1, 0x3d, 0x04, 0xd2, 0x78, 0x3e, 0x0a, 0xd7, 0x0b, 0x3e,
  0x33, 0xbf, 0x14, 0x3e, 0x50, 0x7d, 0xcc, 0xbd, 0x72, 0xd4, 0x89, 0xbd,
  0x43, 0xc2, 0x4c, 0x3e, 0x8b, 0xd5, 0x27, 0x3e, 0x14, 0x0e, 0x4b, 0xbe,
  0x05, 0x45, 0x0e, 0xbe, 0x8d, 0xfe, 0x86, 0x3d, 0xf7, 0x4f, 0x14, 0x3d,
  0x86, 0xc9, 0x12, 0xbe, 0x87, 0x03, 0x3d, 0xbe, 0x54, 0x8d, 0x02, 0x3e,
  0x89, 0x85, 0xb3, 0x3d, 0x6b, 0x70, 0xb1, 0x3c, 0xb2, 0x96, 0xaa, 0xbd,
  0x37, 0x0a, 0xbb, 0xbe, 0x6f, 0x6b, 0xaf, 0xbd, 0x2f, 0xab, 0x8b, 0x3d,
  0xcb, 0x91, 0x21, 0x3e, 0xbb, 0x9a, 0x31, 0xbd, 0xb0, 0xaa, 0x56, 0x3d,
  0x77, 0xea, 0x0b, 0x3e, 0xfc, 0xc3, 0x15, 0x3e, 0x8d, 0xd1, 0xa5, 0x3d,
  0xef, 0xbf, 0x81, 0x3e, 0x0c, 0x1f, 0x0d, 0x3e, 0x2d, 0x6e, 0x29, 0x3e,
  0x4f, 0x31, 0xc9, 0xbd, 0xc7, 0x94, 0x20, 0x3d, 0x6d, 0x81, 0x10, 0xbe,
  0xaa, 0xe0, 0x74, 0xbe, 0xc6, 0x4f, 0xa4, 0x3d, 0x12, 0x91, 0xbd, 0xbc,
  0xbb, 0x31, 0xe9, 0x3d, 0xb9, 0xa5, 0xd1, 0xbd, 0x79, 0x28, 0x12, 0xbc,
  0xb1, 0x42, 0xd6, 0x3d, 0xcc, 0xc3, 0x57, 0x3e, 0xc3, 0xbe, 0x5c, 0x3a,
  0x1a, 0x7b, 0x1a, 0xbe, 0x39, 0x88, 0x9b, 0xbd, 0x1c, 0xda, 0x97, 0x3a,
  0xfa, 0x29, 0xa0, 0xbd, 0xd2, 0x6a, 0x0a, 0xbe, 0xc0, 0xfc, 0x87, 0xbe,
  0xd7, 0x55, 0x44, 0x3d, 0x34, 0x4b, 0x30, 0x3a, 0xe6, 0x97, 0x59, 0x3d,
  0x34, 0x5b, 0x23, 0xbe, 0x38, 0x20, 0xee, 0xbd, 0xe9, 0x7f, 0x82, 0xbe,
  0xcf, 0x82, 0x78, 0xbe, 0x00, 0x62, 0x3b, 0x3e, 0x08, 0x6a, 0x99, 0xbe,
  0xba, 0xb1, 0x5c, 0x3e, 0xf7, 0x25, 0x4f, 0x3e, 0x9b, 0x29, 0x74, 0x3d,
  0x6a, 0x69, 0xcd, 0x3d, 0x82, 0x09, 0x23, 0xbe, 0x64, 0x0b, 0x73, 0xbe,
  0x87, 0xbe, 0xf0, 0xbd, 0x37, 0x77, 0x65, 0xbe, 0xcd, 0xe8, 0x13, 0xbe,
  0x20, 0xdf, 0x90, 0xbd, 0xb1, 0xad, 0x2f, 0x3e, 0x6f, 0xc0, 0x55, 0xbe,
  0x20, 0x14, 0x95, 0xbe, 0x52, 0xd0, 0x23, 0xbd, 0x97, 0xc1, 0xd2, 0xbc,
  0x76, 0xdb, 0x00, 0xbe, 0x97, 0xe7, 0xe6, 0x3d, 0x59, 0x9c, 0x14, 0x3e,
  0x29, 0x2a, 0xba, 0xbd, 0x79, 0x26, 0x13, 0x3e, 0x14, 0x60, 0xba, 0x3d,
  0xf9, 0xc6, 0x81, 0x3c, 0x3d, 0x68, 0x08, 0xbe, 0x45, 0x60, 0x28, 0x3e,
  0xf9, 0x81, 0x2d, 0xbe, 0x35, 0x53, 0x2d, 0xbe, 0x99, 0x22, 0xb2, 0xbd,
  0x9d, 0xa9, 0x64, 0x3e, 0xc1, 0x29, 0x1b, 0xbe, 0xa6, 0x38, 0xc0, 0x3d,
  0xa7, 0xeb, 0x72, 0x3e, 0x06, 0x03, 0x99, 0xbd, 0xfe, 0x91, 0x87, 0xbd,
  0xda, 0xe1, 0xd6, 0x3d, 0xbe, 0x62, 0x62, 0x3e, 0xe5, 0xf4, 0x59, 0x3d,
  0x86, 0x77, 0x37, 0x3d, 0xdb, 0xf6, 0x35, 0x3e, 0xd6, 0x61, 0x1a, 0xbe,
  0x34, 0x9b, 0xd8, 0xbc, 0xc8, 0xc2, 0xcb, 0xbd, 0x19, 0x8a, 0x52, 0x3e,
  0x3a, 0x9b, 0x09, 0x3e, 0xa7, 0x9d, 0x1e, 0x3e, 0xba, 0xf9, 0xdd, 0x3d,
  0xd1, 0x87, 0x70, 0xbb, 0xe5, 0x04, 0x9a, 0x3d, 0x59, 0xbd, 0xb7, 0x3a,
  0xdd, 0x0a, 0x69, 0x3e, 0x84, 0x5e, 0x38, 0x3e, 0x0a, 0x50, 0xf5, 0xbd,
  0xfc, 0xbb, 0x67, 0x3e, 0xcb, 0x96, 0xd6, 0x3d, 0x1d, 0x6b, 0x13, 0x3e,
  0x8b, 0x7e, 0x90, 0xbd, 0x6c, 0xe5, 0xe1, 0xbd, 0x49, 0x3f, 0x02, 0xbd,
  0x71, 0x94, 0x72, 0xbd, 0x55, 0xc1, 0x72, 0x3e, 0x5e, 0x95, 0xef, 0xbd,
  0x7a, 0xa1, 0x9b, 0xbc, 0x5d, 0xc8, 0x2b, 0x3e, 0xdf, 0xac, 0x28, 0x3e,
  0x4a, 0xe8, 0x06, 0x3e, 0xe4, 0xaf, 0x8e, 0x3e, 0xa7, 0x30, 0xe6, 0x3d,
  0x6d, 0x03, 0x84, 0x3e, 0x91, 0x80, 0x4e, 0xbe, 0x28, 0xea, 0xea, 0x3c,
  0x33, 0x42, 0x8d, 0x3d, 0x55, 0x5f, 0x53, 0x3e, 0xbf, 0x9e, 0x2f, 0xbe,
  0xd1, 0xf9, 0x6b, 0x3e, 0x8b, 0x97, 0x15, 0x3e, 0xb4, 0x23, 0xda, 0x3d,
  0xb5, 0x51, 0xb2, 0x3d, 0x4f, 0x97, 0x1f, 0x3e, 0xee, 0xf1, 0xed, 0xbd,
  0x10, 0xa8, 0x88, 0x3e, 0x58, 0x6d, 0xee, 0xbd, 0x0c, 0x3c, 0x90, 0x3c,
  0x54, 0x6b, 0x1d, 0xbd, 0x4e, 0x01, 0x85, 0x3d, 0x38, 0xca, 0x44, 0xbc,
  0x66, 0xb9, 0xb3, 0x3d, 0x06, 0x2d, 0x84, 0x3a, 0x4b, 0x31, 0x4a, 0x3c,
  0x4d, 0xb9, 0x15, 0xbe, 0x33, 0x7e, 0x05, 0xbd, 0x87, 0x6c, 0xbb, 0x3d,
  0x2b, 0xa9, 0x74, 0xbe, 0x5f, 0xd6, 0xd9, 0x3c, 0xe4, 0x12, 0x15, 0x3e,
  0xbc, 0x0e, 0x72, 0xbe, 0x84, 0xc4, 0xab, 0x3b, 0xc8, 0x14, 0x73, 0xbd,
  0x62, 0xac, 0x93, 0xbd, 0x0a, 0x9c, 0x46, 0xbd, 0x8b, 0x38, 0x3f, 0x3e,
  0xc7, 0x09, 0x89, 0x3a, 0x07, 0x28, 0x44, 0x3c, 0xa0, 0x30, 0x95, 0x3e,
  0xb7, 0xec, 0x4d, 0x3e, 0x5d, 0x84, 0x8a, 0xbe, 0x43, 0x61, 0xa7, 0xbd,
  0x36, 0xe6, 0x65, 0x3e, 0xda, 0x98, 0xb5, 0x3c, 0x62, 0xc3, 0x84, 0xbd,
  0xaa, 0x13, 0xa3, 0xbd, 0x82, 0xb6, 0x0b, 0xbe, 0xed, 0x0e, 0x5c, 0xbd,
  0xa9, 0x67, 0xec, 0x3d, 0xa1, 0xeb, 0x05, 0x3e, 0xd4, 0xcf, 0xe6, 0x3c,
  0xde, 0x21, 0x5f, 0x3e, 0xe3, 0xde, 0x11, 0xbd, 0x6c, 0xd8, 0xf3, 0xbc,
  0x40, 0x80, 0x85, 0xbe, 0x69, 0xae, 0x81, 0xbe, 0xdc, 0x9d, 0x04, 0x3e,
  0xd8, 0x4a, 0xbf, 0xb9, 0x89, 0x2c, 0xe5, 0x3d, 0x8e, 0x62, 0x80, 0x3e,
  0xb4, 0x91, 0x13, 0x3e, 0x36, 0x3c, 0x07, 0xbe, 0x49, 0xb4, 0x39, 0x3e,
  0xa1, 0xdc, 0x4a, 0x3e, 0x40, 0xbd, 0xbd, 0xbd, 0xae, 0x71, 0xe7, 0xbc,
  0x85, 0x32, 0x6f, 0xbe, 0x86, 0xb5, 0x4a, 0x3e, 0x1c, 0x37, 0x29, 0x3d,
  0x87, 0x59, 0x88, 0x3c, 0x12, 0x54, 0x59, 0xbd, 0x9e, 0x2c, 0x89, 0x3d,
  0x0b, 0xc3, 0x69, 0x3e, 0x21, 0x65, 0xa3, 0x3e, 0x4b, 0x0f, 0x25, 0xbe,
  0xbe, 0xb8, 0x36, 0x3e, 0x81, 0x16, 0x0c, 0xbe, 0x1c, 0x0b, 0x3e, 0xbd,
  0x5f, 0x84, 0x14, 0xbe, 0x13, 0x16, 0x3b, 0xbd, 0xc4, 0xea, 0x4a, 0x3e,
  0xea, 0x71, 0x7a, 0xbe, 0xf6, 0x5c, 0xb8, 0x3d, 0x65, 0x37, 0xce, 0x3d,
  0xc2, 0x43, 0x57, 0xbe, 0x9a, 0xc5, 0x5e, 0x3d, 0xdc, 0x39, 0x0d, 0xbe,
  0xe3, 0xd1, 0x83, 0x3e, 0x6b, 0xce, 0xbf, 0x3d, 0x01, 0xa7, 0xb9, 0x3c,
  0xe8, 0x0b, 0x68, 0x3e, 0xea, 0x8c, 0x91, 0xbc, 0x27, 0x22, 0x50, 0xbe,
  0x71, 0x36, 0x6c, 0xbd, 0xbb, 0x2b, 0x04, 0x3e, 0x42, 0x49, 0x78, 0xbe,
  0xe1, 0x81, 0x76, 0x3c, 0x2c, 0x56, 0x54, 0x3e, 0xa4, 0x0f, 0x1f, 0xbe,
  0x2a, 0x56, 0x0f, 0x3d, 0x42, 0xb3, 0x98, 0x3e, 0x15, 0xc7, 0x56, 0xbd,
  0xfa, 0x90, 0xa7, 0xbd, 0x12, 0x43, 0xce, 0x3d, 0x1a, 0x20, 0xf0, 0x3c,
  0x38, 0xbf, 0x65, 0xbe, 0x16, 0x9d, 0x3d, 0xbe, 0x14, 0xb9, 0x8a, 0x3d,
  0x7d, 0x2c, 0x0a, 0xbe, 0x32, 0x55, 0xd2, 0x3d, 0x98, 0x79, 0x1b, 0xbe,
  0x63, 0x34, 0x9d, 0x3d, 0xd8, 0xda, 0x72, 0x3c, 0x86, 0x35, 0x31, 0xba,
  0x03, 0xf5, 0xfd, 0x3d, 0x9e, 0x62, 0xdc, 0xbd, 0x6d, 0x10, 0xa8, 0x3d,
  0xa7, 0x46, 0xc4, 0xbd, 0x6e, 0xd0, 0x4e, 0xbe, 0x36, 0x2d, 0x7b, 0xbd,
  0xd0, 0x3c, 0xf2, 0x3d, 0x40, 0xaa, 0x27, 0xbe, 0xb9, 0x2d, 0x00, 0x3e,
  0xf7, 0x31, 0x41, 0xbd, 0xb2, 0xf9, 0x0f, 0x3e, 0xb5, 0x9b, 0x01, 0xbe,
  0x5d, 0x19, 0x88, 0x3e, 0xcf, 0xd2, 0x7f, 0x3e, 0x8d, 0x78, 0x88, 0x3e,
  0x7b, 0xe1, 0xa8, 0x3d, 0xf5, 0xb3, 0xf6, 0xbd, 0x68, 0xc3, 0xab, 0xbd,
  0x8c, 0x17, 0x5f, 0xbe, 0x92, 0xa7, 0x74, 0x3e, 0x7d, 0x3f, 0x3a, 0xbe,
  0x35, 0x83, 0xb6, 0x3d, 0xce, 0x3d, 0xce, 0xbd, 0x4a, 0xe2, 0xdf, 0xbd,
  0xf8, 0xa0, 0x31, 0xbe, 0x9d, 0x00, 0x2b, 0xbe, 0x3d, 0x3e, 0x2f, 0xbe,
  0x58, 0xdc, 0x0d, 0x3e, 0x97, 0xda, 0x73, 0x3e, 0x5c, 0xa0, 0x7d, 0xbe,
  0x89, 0xe9, 0x2c, 0x3e, 0xde, 0x49, 0x89, 0xbd, 0x4b, 0xf0, 0x2d, 0xbe,
  0xb8, 0x62, 0x5b, 0xbe, 0xe6, 0xbb, 0x19, 0x3e, 0x64, 0xe6, 0x40, 0x3e,
  0x87, 0xf0, 0xba, 0x3d, 0x3d, 0x3e, 0x34, 0x3d, 0x67, 0x01, 0x03, 0x3e,
  0x0d, 0x77, 0xbf, 0xbd, 0xbd, 0x7d, 0xc9, 0xbd, 0x81, 0x15, 0x4d, 0x3e,
  0xdd, 0x71, 0xa5, 0xbd, 0x7c, 0x75, 0x73, 0x3e, 0x9d, 0x38, 0x3b, 0xbe,
  0x4a, 0x33, 0xa1, 0x3d, 0x5f, 0x1a, 0x35, 0x3d, 0x99, 0xa7, 0xc5, 0x3d,
  0xee, 0xe8, 0x1f, 0x3e, 0xc4, 0xa9, 0x2d, 0xbe, 0xae, 0x5e, 0xe7, 0xbd,
  0x07, 0x67, 0x04, 0x3c, 0xaf, 0xa0, 0x72, 0xbd, 0xd0, 0x0f, 0x5d, 0x3e,
  0xa3, 0xfb, 0x04, 0xbe, 0x71, 0x9c, 0xd2, 0x3d, 0x07, 0xdd, 0x4a, 0x3e,
  0xaa, 0x05, 0x37, 0x3d, 0x53, 0xb6, 0x4a, 0xbe, 0x9f, 0xc9, 0x18, 0x3e,
  0xd8, 0xa7, 0x40, 0x3b, 0x2c, 0x2a, 0x33, 0xbe, 0x59, 0xc7, 0x61, 0x3e,
  0x01, 0x2d, 0xc9, 0xbc, 0xd7, 0xa8, 0x0d, 0x3d, 0x66, 0xa8, 0x78, 0xbe,
  0xb9, 0x96, 0x20, 0x3e, 0xb4, 0x1f, 0xe6, 0x3d, 0x8b, 0x3f, 0x54, 0xbe,
  0x2f, 0x7a, 0x28, 0x3e, 0xb1, 0x78, 0x37, 0x3d, 0x6a, 0x45, 0x41, 0xbe,
  0x5f, 0x16, 0xf5, 0xbd, 0xcd, 0x89, 0x13, 0x3e, 0xa4, 0x67, 0xc3, 0x3d,
  0x4d, 0x64, 0xc4, 0xbd, 0xb3, 0x30, 0x74, 0xbe, 0x1b, 0x5f, 0xe3, 0x3d,
  0x3c, 0xac, 0x85, 0x3d, 0x63, 0x52, 0xd2, 0xbd, 0x02, 0x2f, 0x55, 0xbe,
  0x53, 0xb2, 0x23, 0xbe, 0xea, 0x52, 0x86, 0xbe, 0x94, 0xb0, 0x00, 0x3e,
  0x15, 0x55, 0x2a, 0xbe, 0x35, 0x61, 0x56, 0x3e, 0x86, 0xf5, 0x19, 0x3d,
  0x29, 0x32, 0x81, 0xbd, 0x27, 0xf1, 0x5c, 0xbe, 0xc2, 0x4d, 0xb6, 0xbd,
  0xf7, 0x04, 0x35, 0x3d, 0x25, 0x51, 0xfa, 0x3c, 0xbe, 0x58, 0x38, 0xbe,
  0x59, 0xa5, 0x58, 0x3e, 0x98, 0xbf, 0x53, 0xbe, 0xcb, 0xb4, 0xef, 0x3d,
  0x59, 0xaf, 0x0d, 0x3e, 0xcd, 0xfa, 0x80, 0xbe, 0xd5, 0x82, 0xe9, 0xbd,
  0x3a, 0x89, 0x88, 0x3d, 0xa2, 0xe7, 0x35, 0xbd, 0xcc, 0xfd, 0x1e, 0xbe,
  0x40, 0x42, 0x79, 0xbe, 0xd9, 0x24, 0xb1, 0xbc, 0x7e, 0x2e, 0xa6, 0x3d,
  0x2f, 0x82, 0x62, 0x3e, 0xd4, 0xa0, 0x64, 0x3d, 0x6e, 0x95, 0x27, 0xbe,
  0x6c, 0x92, 0x24, 0x3d, 0x21, 0xcf, 0x41, 0xbd, 0xc3, 0xb9, 0xea, 0xbc,
  0x57, 0x01, 0x69, 0x3e, 0xbc, 0xbc, 0x56, 0x3d, 0x2f, 0x2e, 0x46, 0xbd,
  0x46, 0x18, 0x01, 0x3a, 0x33, 0x7a, 0x49, 0xbe, 0x17, 0x8d, 0xdb, 0x3d,
  0xd0, 0xb5, 0x9c, 0x3d, 0x81, 0xd7, 0x4e, 0x3e, 0x23, 0xc9, 0x56, 0x3e,
  0x4b, 0x20, 0x74, 0xbe, 0x4a, 0x1c, 0xa2, 0xbd, 0xe7, 0xcb, 0x7e, 0xbe,
  0x97, 0x15, 0x73, 0x3e, 0x36, 0xa6, 0x5c, 0x3e, 0xb3, 0x9e, 0x68, 0x3e,
  0x03, 0x6b, 0x4f, 0x3c, 0x69, 0x29, 0x28, 0x3e, 0x19, 0xd7, 0x59, 0xbe,
  0xb5, 0xca, 0xfa, 0x3d, 0x14, 0xba, 0xca, 0x3d, 0x70, 0x41, 0x01, 0x3d,
  0x4a, 0x4a, 0x0a, 0x3e, 0x03, 0x9c, 0x92, 0x3e, 0x33, 0xd1, 0x0e, 0xbe,
  0x30, 0xcb, 0x77, 0x3e, 0x5d, 0x37, 0x11, 0x3e, 0x05, 0x06, 0x58, 0xbd,
  0x76, 0x76, 0xd4, 0xbd, 0xc0, 0x5c, 0x56, 0xbe, 0x7a, 0x2a, 0x19, 0xbd,
  0x25, 0x3d, 0x6d, 0xbe, 0x0f, 0xc0, 0x9b, 0x3d, 0x68, 0x38, 0x70, 0x3e,
  0xfb, 0x3b, 0x60, 0x3e, 0x00, 0x22, 0x12, 0x3e, 0x55, 0xf5, 0x03, 0x3e,
  0xb9, 0x1d, 0x54, 0x3c, 0x93, 0x29, 0x03, 0xbe, 0x6b, 0xaa, 0x67, 0x3e,
  0x95, 0xba, 0x1b, 0x3d, 0xd7, 0x91, 0x49, 0xbe, 0x20, 0xf7, 0x59, 0x3e,
  0xdb, 0x64, 0xb4, 0xbc, 0xcf, 0x3a, 0x5e, 0x3e, 0xea, 0xc5, 0x52, 0xbe,
  0xe5, 0x6e, 0x84, 0xbd, 0xac, 0xe9, 0x0f, 0xbe, 0x90, 0x8a, 0x8a, 0x3d,
  0x68, 0x70, 0x0e, 0x3e, 0xa9, 0xcd, 0x27, 0xbe, 0x4a, 0x55, 0xea, 0x3d,
  0x11, 0x86, 0x05, 0x3e, 0x30, 0x39, 0x7f, 0x3e, 0xb5, 0x2b, 0x12, 0xbd,
  0x49, 0xf5, 0x88, 0xbe, 0x59, 0x31, 0x3b, 0xbe, 0x27, 0x0c, 0x73, 0xbe,
  0x27, 0x30, 0x75, 0xbc, 0x5c, 0xc6, 0x04, 0x3e, 0x5c, 0x5c, 0xf5, 0xbd,
  0x73, 0x66, 0x00, 0xbd, 0x3e, 0x0e, 0xb6, 0x3d, 0xa4, 0xa8, 0x0e, 0xbe,
  0xd6, 0xe2, 0xd6, 0x3d, 0x54, 0x94, 0x89, 0x3e, 0xa7, 0xde, 0x64, 0xbe,
  0xe6, 0x11, 0xa5, 0x3d, 0x9f, 0x5f, 0x8d, 0x3d, 0x25, 0x2a, 0xbf, 0x3d,
  0x77, 0xf2, 0xa6, 0x3c, 0xbf, 0x50, 0x42, 0x3e, 0x43, 0x8c, 0xac, 0x3d,
  0xaa, 0xe6, 0x61, 0x3e, 0x99, 0x28, 0xed, 0xbd, 0x30, 0xa7, 0x43, 0x3e,
  0x03, 0xa2, 0xd0, 0x3d, 0xcb, 0x4f, 0x45, 0x3e, 0x76, 0xc1, 0x50, 0xbe,
  0xf6, 0x22, 0x45, 0xbe, 0x0f, 0xa5, 0x81, 0x3c, 0xb5, 0x47, 0x14, 0x3e,
  0xf5, 0x5d, 0x29, 0x3e, 0x88, 0x53, 0x58, 0xbe, 0x2e, 0x36, 0x2c, 0x3e,
  0xbf, 0x17, 0xb6, 0x3c, 0x3f, 0xff, 0x09, 0x3e, 0x47, 0x92, 0x47, 0x3e,
  0xa5, 0xcf, 0x28, 0x3d, 0x28, 0xa4, 0x78, 0x3e, 0xb4, 0x93, 0x89, 0xbd,
  0x27, 0xb4, 0xc5, 0x3d, 0xdb, 0x2b, 0xf8, 0xbd, 0x26, 0x77, 0x6e, 0xbe,
  0xe0, 0xdb, 0x43, 0x3d, 0x2d, 0x21, 0xb9, 0xbd, 0xd4, 0xb1, 0x63, 0x3a,
  0x84, 0x88, 0xbc, 0x3d, 0x53, 0x47, 0x2b, 0xbe, 0xcd, 0x6a, 0x3c, 0x3c,
  0x8a, 0x60, 0x2b, 0xbe, 0xa8, 0x59, 0x81, 0x3e, 0x2c, 0x13, 0x87, 0x3d,
  0x2c, 0xbd, 0xc2, 0xbd, 0x78, 0x93, 0x14, 0xbd, 0xd5, 0xd7, 0x4e, 0x3e,
  0x82, 0xfb, 0x33, 0xbe, 0x3c, 0x6d, 0xb8, 0x3d, 0xf1, 0xf9, 0xa9, 0x3b,
  0x30, 0xbf, 0x62, 0x3c, 0x15, 0xc2, 0x60, 0xbe, 0xc2, 0x9a, 0x41, 0xbe,
  0x80, 0x38, 0x2e, 0xbd, 0x46, 0x92, 0x2f, 0xbe, 0x11, 0x79, 0x17, 0x3c,
  0xf7, 0xb9, 0x7c, 0xbd, 0xb8, 0x5d, 0x61, 0x3e, 0x3a, 0xc1, 0x24, 0x3e,
  0x98, 0xb1, 0x27, 0xbe, 0x3b, 0x05, 0xb5, 0x3d, 0x16, 0xd0, 0xf4, 0x3d,
  0x44, 0xa1, 0x10, 0xbb, 0x2b, 0xe4, 0x45, 0xbd, 0x2c, 0xbe, 0x03, 0x3e,
  0x86, 0xca, 0x02, 0xbd, 0x8a, 0x80, 0xfa, 0x3c, 0xe2, 0xa2, 0xd2, 0xbb,
  0xf6, 0x66, 0x1e, 0xbe, 0x48, 0xf2, 0x04, 0xbd, 0xbc, 0x84, 0x3b, 0x3c,
  0x80, 0x01, 0xc9, 0x3d, 0xb6, 0xda, 0x49, 0xbd, 0xf4, 0x90, 0x09, 0x3e,
  0x6f, 0xd6, 0x86, 0x3d, 0x40, 0xed, 0x27, 0xbc, 0x5c, 0x13, 0x40, 0x3e,
  0xbb, 0x79, 0x9c, 0xbd, 0xe7, 0x9a, 0x83, 0x3d, 0x30, 0xcb, 0x80, 0xbe,
  0x97, 0x48, 0xe8, 0x3d, 0xb8, 0x01, 0xdc, 0x3d, 0x1d, 0xcf, 0x7d, 0xbe,
  0x41, 0xae, 0x4b, 0xbe, 0x7f, 0xda, 0xf4, 0xbd, 0x37, 0xd0, 0x3f, 0xbe,
  0x65, 0x7e, 0x4c, 0x3e, 0x72, 0x1f, 0x26, 0x3d, 0x0b, 0x7f, 0xa8, 0x3c,
  0x00, 0xfc, 0x11, 0x3e, 0xdc, 0xdb, 0x88, 0xbc, 0x1c, 0x60, 0x2a, 0xbe,
  0x08, 0xa1, 0x59, 0xbe, 0xe1, 0x1f, 0x72, 0x3e, 0xe5, 0xd7, 0xbd, 0x3d,
  0x86, 0x25, 0xa3, 0x3d, 0xc8, 0x43, 0x4b, 0xbe, 0x9e, 0x76, 0x46, 0xbd,
  0xc9, 0xe5, 0xea, 0x3d, 0xd7, 0x49, 0x86, 0x3d, 0x93, 0xd1, 0x58, 0x3d,
  0x60, 0xa0, 0x9b, 0xbc, 0x0f, 0xfa, 0x3c, 0xbe, 0xb7, 0xd3, 0x0d, 0xbd,
  0xe1, 0x99, 0x03, 0x3e, 0x8a, 0xc2, 0xcc, 0xbc, 0xb0, 0xf0, 0xd4, 0x3d,
  0x88, 0x27, 0xa7, 0xbc, 0xbd, 0xe8, 0x0d, 0xbe, 0x4f, 0x66, 0x38, 0x3e,
  0x3e, 0x69, 0xa1, 0x3d, 0x09, 0x9f, 0x06, 0xbb, 0xcd, 0xfa, 0x45, 0xbe,
  0xd0, 0x66, 0xa1, 0x3d, 0x18, 0xd0, 0x81, 0x3d, 0xa4, 0x8d, 0x9b, 0xbd,
  0x30, 0x54, 0x3d, 0xbc, 0xc8, 0xd2, 0x26, 0xbe, 0x52, 0x8c, 0x77, 0xbe,
  0x58, 0x13, 0x51, 0xbc, 0xb7, 0x3e, 0x2f, 0x3d, 0xcb, 0xea, 0xf8, 0xbc,
  0xa3, 0x44, 0x27, 0xbe, 0xb8, 0x91, 0x29, 0xbe, 0xed, 0x11, 0x52, 0x3e,
  0x31, 0x82, 0x0b, 0xbe, 0x96, 0xab, 0x8a, 0xbd, 0x0e, 0x9e, 0xbc, 0x3d,
  0xae, 0xa3, 0xb6, 0xbd, 0xd6, 0x8b, 0xc0, 0xbd, 0xf5, 0x9a, 0xa4, 0x3c,
  0x08, 0x6c, 0x33, 0x3e, 0xa4, 0x12, 0x62, 0x3e, 0xc0, 0xb4, 0x56, 0x3e,
  0xb8, 0x14, 0x1c, 0xbe, 0x82, 0xb3, 0x8c, 0xbe, 0x8a, 0xc4, 0x6f, 0xbe,
  0x0c, 0xd2, 0x63, 0xbe, 0x5b, 0x99, 0x8c, 0x3d, 0xa1, 0xa0, 0x81, 0x3e,
  0x83, 0xb3, 0xe3, 0xbd, 0x58, 0x18, 0x4e, 0x3e, 0x05, 0xa2, 0x3a, 0xbe,
  0x84, 0x79, 0xe2, 0xbd, 0x42, 0xdd, 0x83, 0xbe, 0xe3, 0x04, 0x3a, 0xbe,
  0x80, 0x4e, 0x31, 0x3e, 0xa1, 0xf8, 0xf2, 0xbd, 0x3e, 0xca, 0x4d, 0x3e,
  0xb9, 0x22, 0x15, 0x3b, 0x7a, 0xfa, 0x2f, 0x3d, 0xfc, 0x0b, 0x98, 0xbd,
  0x1b, 0xf6, 0x06, 0xbe, 0xa1, 0x3b, 0x5e, 0x3c, 0x7e, 0x4a, 0x59, 0xbe,
  0x00, 0x20, 0x12, 0x3e, 0xf3, 0xa0, 0x03, 0x3e, 0x8f, 0xd2, 0xb2, 0xbc,
  0xc0, 0x8b, 0x33, 0xbc, 0x67, 0x84, 0x48, 0xbe, 0xfc, 0x35, 0x1e, 0xbe,
  0x72, 0xb3, 0x7e, 0x3d, 0x01, 0xd7, 0x08, 0x3e, 0x3b, 0xd4, 0x30, 0xbc,
  0xa8, 0xd5, 0x24, 0x3d, 0x27, 0x74, 0x66, 0x3e, 0x0c, 0xa2, 0xe9, 0x3d,
  0x1c, 0x81, 0xb4, 0x3d, 0x08, 0x51, 0x09, 0x3e, 0x65, 0x29, 0x96, 0xbc,
  0x18, 0x57, 0x20, 0x3e, 0x5c, 0x7b, 0x6f, 0x3d, 0x9a, 0xf0, 0xae, 0xbc,
  0x5d, 0x8e, 0x22, 0xbe, 0xc7, 0x1a, 0xd5, 0xbc, 0x35, 0xd0, 0x06, 0xbd,
  0xc9, 0x21, 0x9a, 0x3b, 0xb8, 0x7f, 0x3c, 0x3e, 0x62, 0x4a, 0xbc, 0x3d,
  0xf0, 0xa3, 0x83, 0xbc, 0x93, 0xa5, 0x9b, 0x3d, 0xa7, 0x6c, 0x38, 0xbe,
  0x67, 0xd5, 0x4a, 0x3e, 0xa6, 0x67, 0x41, 0x3e, 0xa0, 0x08, 0x3d, 0xbe,
  0x53, 0x01, 0x1e, 0xbd, 0xed, 0x83, 0x31, 0xbe, 0xa2, 0x0e, 0x37, 0xbe,
  0xcd, 0x6d, 0x10, 0x3e, 0x6a, 0x74, 0x60, 0x3e, 0x31, 0xcb, 0xeb, 0xbd,
  0x42, 0x26, 0x08, 0x3c, 0x07, 0x4c, 0x02, 0x3e, 0x94, 0x7a, 0xb1, 0xbd,
  0xa2, 0x30, 0xfe, 0x3d, 0x94, 0xb9, 0x14, 0xbe, 0xad, 0x7c, 0x60, 0xbd,
  0x96, 0x9a, 0x18, 0x3e, 0x39, 0xae, 0x96, 0x3d, 0x25, 0x3e, 0x71, 0x3e,
  0xce, 0xdf, 0x1f, 0xbe, 0x7e, 0x25, 0x1c, 0x3e, 0xb8, 0x9a, 0xf5, 0x3d,
  0x66, 0xe7, 0x6b, 0x3e, 0x08, 0xf8, 0x91, 0x3c, 0xdf, 0x52, 0x23, 0x3e,
  0x29, 0x9a, 0x7b, 0xbe, 0xc4, 0x42, 0x9c, 0xbd, 0x91, 0xd7, 0x75, 0x3e,
  0x22, 0x1f, 0xca, 0x3d, 0xe1, 0x72, 0x00, 0xbe, 0x8f, 0x01, 0xad, 0x3c,
  0x20, 0xca, 0xf2, 0xbc, 0xf4, 0x8c, 0x44, 0xbc, 0x97, 0x12, 0x1a, 0x3e,
  0x57, 0xf2, 0x04, 0x3c, 0x22, 0x6f, 0x4d, 0x3e, 0x06, 0x31, 0x35, 0xbc,
  0x06, 0xaa, 0x37, 0x3e, 0x76, 0xb6, 0xf8, 0xbd, 0xc4, 0xa9, 0x79, 0x3d,
  0xde, 0x92, 0xfd, 0xbd, 0x4d, 0x70, 0x57, 0xbe, 0xd3, 0x31, 0x1e, 0x3e,
  0xde, 0xe7, 0x0c, 0x3d, 0x4c, 0x2b, 0x47, 0xbe, 0x02, 0x76, 0x50, 0x3e,
  0xc8, 0xd0, 0xd7, 0xbd, 0x90, 0xf8, 0x81, 0xbe, 0x08, 0x94, 0x70, 0x3e,
  0x6a, 0x15, 0x1d, 0x3e, 0x59, 0xff, 0x4c, 0xbe, 0xa2, 0x5e, 0xa6, 0x3d,
  0x66, 0x25, 0xa1, 0x3c, 0xee, 0xee, 0xb0, 0xbd, 0xb2, 0x9b, 0x9d, 0xbd,
  0xa0, 0xc3, 0xf8, 0xbd, 0x82, 0x17, 0x1c, 0x3e, 0x06, 0x12, 0x58, 0xbd,
  0xfe, 0xd5, 0x4f, 0x3e, 0x8d, 0x4b, 0x54, 0xbe, 0xdf, 0x78, 0x7a, 0xbe,
  0x5e, 0x89, 0x6d, 0xbe, 0x0a, 0x03, 0xe0, 0x3d, 0xe3, 0x74, 0x3e, 0xbe,
  0x9b, 0x87, 0x0c, 0x3e, 0xd7, 0x70, 0x67, 0x3d, 0x23, 0x88, 0xf5, 0x3c,
  0xf7, 0x5e, 0x47, 0x3e, 0xb7, 0x3b, 0x4a, 0x3e, 0xeb, 0xdc, 0x57, 0xbe,
  0xd6, 0xd1, 0x4c, 0x3e, 0x89, 0x79, 0x78, 0xbd, 0xba, 0x4a, 0x3b, 0xbd,
  0x29, 0x96, 0x3e, 0x3e, 0xa3, 0x39, 0x89, 0xbd, 0xdb, 0xf0, 0x83, 0xbd,
  0x72, 0x79, 0xa1, 0x3c, 0x4f, 0xd1, 0x97, 0xbb, 0x03, 0x35, 0x62, 0xbe,
  0x56, 0xde, 0xd5, 0xbc, 0x0a, 0xe8, 0x9a, 0x3d, 0xa2, 0x0b, 0xf1, 0x3d,
  0x03, 0xbb, 0x2c, 0x3d, 0x06, 0x47, 0x37, 0xbd, 0xa1, 0x03, 0xcd, 0xbd,
  0x96, 0x3a, 0x66, 0xbd, 0x6e, 0x6d, 0x52, 0xbc, 0xec, 0x05, 0x1e, 0x3e,
  0x3a, 0x49, 0xb0, 0x3d, 0xa4, 0x21, 0x72, 0x3e, 0xe3, 0x7b, 0x6e, 0xbe,
  0x0d, 0xff, 0x66, 0xbe, 0x1f, 0xa3, 0xe6, 0xbd, 0x90, 0x04, 0x3b, 0x3e,
  0x44, 0xae, 0xb2, 0x3d, 0xae, 0xdf, 0x3d, 0x3d, 0xd3, 0xf1, 0x40, 0x3e,
  0xc7, 0x5c, 0x3e, 0xbe, 0x6d, 0xc0, 0x52, 0xbe, 0xea, 0x83, 0xbc, 0x3d,
  0x5a, 0xf3, 0x5a, 0xbc, 0x8e, 0x51, 0x60, 0x3d, 0x9d, 0x26, 0x6c, 0xbe,
  0x85, 0x13, 0x62, 0xbe, 0xcc, 0x81, 0x3a, 0xbe, 0x2e, 0xc5, 0xeb, 0x3d,
  0x62, 0xb4, 0x1b, 0x3b, 0xe8, 0xec, 0x3b, 0xbe, 0x04, 0xb0, 0x5c, 0xbc,
  0x08, 0x02, 0x53, 0xbe, 0xff, 0x60, 0x52, 0x3e, 0xa8, 0xa5, 0x1e, 0xbe,
  0x2b, 0xf9, 0x26, 0x3e, 0x8d, 0x2d, 0x82, 0x3d, 0xf5, 0xa4, 0xb4, 0xbd,
  0x83, 0x35, 0xdf, 0x3d, 0x63, 0x76, 0x22, 0x3e, 0x04, 0x51, 0x8d, 0x3d,
  0x13, 0xbf, 0x71, 0x3d, 0x8b, 0x2e, 0x40, 0x3d, 0x8f, 0xb7, 0x24, 0xbe,
  0x08, 0xb7, 0xfd, 0x3d, 0xab, 0xde, 0xaa, 0xbd, 0xfa, 0x48, 0x52, 0xbe,
  0xc2, 0x82, 0x0d, 0x3e, 0x23, 0xf2, 0x75, 0xbe, 0xdd, 0xdd, 0x42, 0x3c,
  0xf1, 0xc6, 0xe6, 0x3d, 0x7b, 0xb6, 0x3b, 0xbe, 0x46, 0x62, 0x14, 0xbe,
  0x5b, 0xf9, 0x86, 0xbc, 0x3a, 0x5e, 0x43, 0x3d, 0x6e, 0xb4, 0x12, 0xbd,
  0xe9, 0xec, 0x49, 0x3e, 0x5b, 0x6a, 0xae, 0x3d, 0x4d, 0x86, 0x4b, 0x3e,
  0xe1, 0x98, 0x9b, 0xbd, 0x32, 0xe5, 0x89, 0xbd, 0x18, 0x35, 0x14, 0x3e,
  0xc1, 0x96, 0x7e, 0xbe, 0x68, 0x90, 0xb6, 0xbc, 0x86, 0xa9, 0x8c, 0x3d,
  0xc9, 0xa9, 0x66, 0x3e, 0x37, 0x88, 0xbd, 0xbd, 0x57, 0x81, 0x33, 0xbe,
  0x45, 0x19, 0xcd, 0xbd, 0xd6, 0x74, 0x22, 0xbe, 0x2b, 0x2c, 0x84, 0x3e,
  0xf2, 0xe6, 0x09, 0xbc, 0x6e, 0x79, 0xdc, 0x3d, 0xba, 0x3f, 0x27, 0x3e,
  0xb0, 0xde, 0x10, 0x3e, 0x8b, 0x4b, 0x96, 0xbc, 0xa0, 0xe0, 0x1e, 0x3e,
  0x9c, 0x45, 0x9f, 0x3e, 0x60, 0x38, 0x61, 0xbd, 0xf3, 0x12, 0xf7, 0x3d,
  0x0d, 0x3a, 0xac, 0x3c, 0xdb, 0x1a, 0xed, 0xbd, 0xdb, 0x2e, 0xa6, 0x3d,
  0x17, 0x15, 0x38, 0x3e, 0x1c, 0x88, 0x33, 0xbe, 0x5f, 0xd6, 0x71, 0xbe,
  0x01, 0xa6, 0x7f, 0x3e, 0xf0, 0x18, 0xef, 0xbd, 0x79, 0x39, 0x47, 0x3e,
  0x02, 0xb4, 0xd9, 0x3d, 0x14, 0xf0, 0xd6, 0xbd, 0x8f, 0x66, 0xbd, 0x3d,
  0x51, 0xac, 0x71, 0x3c, 0xd9, 0xa6, 0x3d, 0x3d, 0x4c, 0xb9, 0x23, 0x3e,
  0xd3, 0x01, 0x1e, 0x3e, 0xc2, 0xa1, 0x50, 0xbe, 0x02, 0x2c, 0xda, 0x3d,
  0xb0, 0x84, 0x24, 0x3e, 0x08, 0xa9, 0x38, 0x3e, 0xb9, 0x0d, 0x18, 0xbe,
  0xa3, 0xd8, 0x7c, 0x3e, 0x1a, 0xeb, 0xef, 0xbd, 0xb5, 0x0c, 0x8a, 0xbd,
  0xd8, 0x0f, 0xa6, 0xbd, 0x1a, 0xe3, 0xc8, 0x3d, 0xa1, 0x40, 0x93, 0xbd,
  0x7f, 0xce, 0x9c, 0xbc, 0x2d, 0xec, 0xe0, 0xbd, 0x56, 0xa4, 0x73, 0x3d,
  0x7c, 0x56, 0xdf, 0xbd, 0x08, 0xb1, 0xc2, 0x3d, 0x04, 0x7b, 0xac, 0xb9,
  0xf2, 0xc2, 0xbd, 0x3d, 0x81, 0x4d, 0x78, 0x3e, 0x5f, 0x03, 0x87, 0x3e,
  0x30, 0xa5, 0x5c, 0xbe, 0x18, 0x04, 0x9c, 0x3d, 0x2e, 0xd0, 0x6c, 0xbb,
  0xc9, 0xa7, 0x50, 0xbe, 0x1f, 0x96, 0x01, 0xbe, 0x2a, 0xba, 0x4c, 0x3e,
  0x91, 0x84, 0xc2, 0xbd, 0x60, 0xfa, 0x77, 0x3e, 0xf9, 0xd1, 0x8f, 0x3e,
  0x0c, 0x97, 0x2b, 0xbc, 0x9b, 0x4d, 0x04, 0x3e, 0xda, 0xa1, 0xe2, 0xbd,
  0x13, 0xf6, 0xb9, 0x3a, 0x7c, 0xcb, 0x14, 0x3d, 0x3a, 0x89, 0x65, 0x3d,
  0x04, 0xa0, 0xf4, 0x3d, 0x90, 0xb0, 0xa0, 0x3d, 0x93, 0xfd, 0x37, 0x3e,
  0x16, 0xd7, 0x77, 0xbc, 0x55, 0xad, 0x91, 0xbd, 0x44, 0x31, 0xab, 0xbd,
  0x25, 0xab, 0x44, 0x3e, 0x69, 0x18, 0x8a, 0xbe, 0xb9, 0x9a, 0x0f, 0xbd,
  0xff, 0x2b, 0xf3, 0x3d, 0x0c, 0x6b, 0x29, 0xbe, 0xc3, 0x34, 0x4e, 0xbe,
  0xd3, 0x4b, 0x37, 0xbe, 0x1c, 0x82, 0x8a, 0x3d, 0x41, 0xd0, 0x06, 0x3c,
  0x1a, 0xc9, 0x78, 0x3d, 0xdf, 0xf1, 0x47, 0xbe, 0x3e, 0xad, 0x1b, 0xbe,
  0xcf, 0x54, 0x09, 0xbe, 0xc1, 0x2a, 0x32, 0xbe, 0x6a, 0xbc, 0x80, 0x3e,
  0x43, 0x94, 0xab, 0x3d, 0x00, 0x3a, 0x5b, 0x3e, 0xee, 0x02, 0x42, 0x3e,
  0xe2, 0x72, 0x19, 0xbe, 0x4c, 0xf6, 0x21, 0xbe, 0xfa, 0x55, 0x1c, 0xbe,
  0x80, 0x2d, 0x02, 0x3d, 0xe8, 0x47, 0xf1, 0x3c, 0x8e, 0x65, 0x2b, 0xbe,
  0xfc, 0xa3, 0x71, 0x3e, 0x03, 0xff, 0x15, 0xbd, 0xce, 0xa1, 0x1c, 0x3e,
  0x0b, 0x91, 0xe9, 0x3d, 0xd5, 0xd3, 0x85, 0x3d, 0x9b, 0xf6, 0xb2, 0x3c,
  0x8d, 0xfc, 0x82, 0xbe, 0xf6, 0x42, 0x98, 0xbc, 0x30, 0xdd, 0xa4, 0x3d,
  0x93, 0x12, 0x9e, 0x3d, 0x24, 0x86, 0xc2, 0x3d, 0x0f, 0x2d, 0xb4, 0x3d,
  0xe4, 0x60, 0x00, 0x3e, 0xbb, 0xb8, 0xd0, 0x3d, 0xcb, 0x45, 0xb6, 0x3d,
  0xcd, 0x6d, 0x08, 0x3d, 0xff, 0xaa, 0xbe, 0x3d, 0x5e, 0xc0, 0x41, 0xbd,
  0xb3, 0xe2, 0x66, 0x3d, 0x00, 0xdb, 0x5c, 0xbe, 0xe8, 0x8d, 0x92, 0xbd,
  0x94, 0x96, 0x64, 0x3d, 0x19, 0xc2, 0x0a, 0x3e, 0xe9, 0x81, 0xef, 0x3d,
  0x66, 0x2a, 0x33, 0xbe, 0x25, 0x9f, 0x4d, 0x3e, 0xba, 0xba, 0x8d, 0xbc,
  0xc8, 0x20, 0x93, 0x3d, 0x1d, 0x2b, 0xf0, 0xbd, 0x14, 0x74, 0x79, 0xbe,
  0x80, 0x4c, 0xe9, 0x3d, 0xf4, 0x34, 0x06, 0xbe, 0x58, 0x94, 0x60, 0xbe,
  0x08, 0x39, 0x0a, 0xbe, 0xe4, 0x7b, 0x28, 0xbe, 0xc8, 0xa9, 0xb0, 0xbd,
  0x00, 0x16, 0x6d, 0xbb, 0x58, 0x50, 0x0c, 0xbe, 0x48, 0x9f, 0x3b, 0xbe,
  0xd0, 0xfe, 0x06, 0xbd, 0xd0, 0x4c, 0x32, 0xbd, 0x40, 0x65, 0x18, 0xbd,
  0x40, 0xcc, 0xa6, 0xbc, 0xc0, 0xd6, 0x2f, 0xbc, 0x60, 0x2e, 0x10, 0xbd,
  0xb4, 0xc8, 0x2d, 0xbe, 0x00, 0x7f, 0xda, 0xbc, 0xe4, 0xa4, 0x60, 0x3e,
  0x90, 0x91, 0x2e, 0x3d, 0x04, 0xb0, 0x42, 0x3e, 0xc0, 0x06, 0xab, 0x3c,
  0xc0, 0xf7, 0xfb, 0x3d, 0x18, 0x14, 0xe8, 0xbd, 0xf0, 0x12, 0x67, 0xbe,
  0x10, 0x78, 0x67, 0x3e, 0x50, 0xa7, 0x5d, 0x3d, 0xb0, 0x0b, 0x0f, 0xbe,
  0xb0, 0x77, 0x05, 0xbe, 0xc0, 0x50, 0x77, 0xbe, 0x40, 0x10, 0x54, 0xbc,
  0xb4, 0x07, 0x6c, 0xbe, 0xe0, 0x1f, 0x95, 0xbc, 0x10, 0x64, 0x49, 0x3d,
  0xe8, 0xae, 0x1e, 0xbe, 0x70, 0xd2, 0xdb, 0x3d, 0xcc, 0x64, 0x54, 0x3e,
  0x00, 0xb8, 0x19, 0xba, 0x28, 0x2a, 0x31, 0x3e, 0xe0, 0x73, 0xf5, 0xbd,
  0x40, 0x9c, 0x61, 0xbe, 0xf0, 0x6e, 0x4d, 0x3e, 0x20, 0xe9, 0xab, 0xbd,
  0xf0, 0x14, 0x93, 0x3d, 0x30, 0xf2, 0xa0, 0xbd, 0x80, 0xad, 0x4a, 0xbc,
  0xa0, 0x3c, 0xee, 0x3c, 0x00, 0x91, 0xc1, 0xbc, 0xe0, 0xc1, 0xe4, 0x3d,
  0xac, 0x92, 0x30, 0xbe, 0x80, 0x74, 0xb2, 0xbd, 0x80, 0x3b, 0x40, 0xbe,
  0xcc, 0x11, 0x6e, 0xbe, 0x90, 0x58, 0x20, 0xbd, 0xc8, 0xa4, 0xaa, 0x3d,
  0xbc, 0x45, 0x51, 0x3e, 0x34, 0x26, 0x3e, 0xbe, 0x40, 0xb8, 0x88, 0xbc,
  0xc8, 0xbc, 0xf2, 0x3d, 0xb0, 0xa2, 0x6c, 0xbe, 0x68, 0xea, 0x6e, 0x3e,
  0xec, 0xfb, 0x1d, 0xbe, 0x80, 0x29, 0xb2, 0xbb, 0x48, 0x51, 0xd2, 0xbd,
  0x44, 0xfd, 0x13, 0xbe, 0xa7, 0x9e, 0x86, 0xbe, 0x4d, 0x98, 0x28, 0xbe,
  0xa4, 0x23, 0x53, 0xbe, 0x08, 0xc7, 0x4e, 0xbe, 0xe5, 0xff, 0x68, 0x3e,
  0x6c, 0x34, 0x3e, 0x3e, 0xed, 0x94, 0x36, 0x3d, 0xaa, 0x90, 0x75, 0xbe,
  0x70, 0x61, 0x09, 0x3e, 0xa8, 0x5a, 0x57, 0x3e, 0xd0, 0x8f, 0xce, 0x3d,
  0xb9, 0x94, 0xdc, 0xbd, 0x3b, 0x24, 0x62, 0x3e, 0xcc, 0x2a, 0xa0, 0x3d,
  0xc0, 0x43, 0x18, 0x3d, 0xcc, 0xc1, 0x6e, 0x3d, 0x6a, 0x3a, 0x09, 0x3d,
  0x84, 0xe9, 0x11, 0xbe, 0xb8, 0xbf, 0x5f, 0xbe, 0x9f, 0xa2, 0x42, 0xbe,
  0x00, 0xf6, 0x12, 0x3d, 0x1f, 0xf2, 0x21, 0xbe, 0x15, 0x29, 0xe1, 0x3d,
  0xe0, 0x97, 0x6c, 0xbd, 0x69, 0x0f, 0x83, 0xbe, 0xf9, 0xb0, 0xcd, 0xbb,
  0xc4, 0x31, 0x21, 0x3e, 0x6c, 0x9b, 0x87, 0xbe, 0xcb, 0xd4, 0x09, 0xbe,
  0x15, 0xbe, 0x97, 0x3c, 0x3e, 0x56, 0xcc, 0x3c, 0xa9, 0x59, 0xea, 0xbd,
  0x4c, 0x92, 0xad, 0xbd, 0xa1, 0xde, 0xb9, 0x3d, 0x17, 0x8d, 0x45, 0xbe,
  0x20, 0xec, 0xee, 0xbc, 0x20, 0xe5, 0x7f, 0xbd, 0x20, 0x45, 0x56, 0x3d,
  0xda, 0xac, 0xc5, 0x3d, 0xba, 0xa1, 0x76, 0xbe, 0x54, 0x99, 0x3c, 0xbe,
  0xc8, 0x67, 0x55, 0xbe, 0x28, 0x90, 0x80, 0x3d, 0x14, 0x24, 0x60, 0xbe,
  0x26, 0xda, 0xa2, 0xbd, 0x30, 0x39, 0x79, 0xbe, 0x91, 0x2d, 0x44, 0x3b,
  0x97, 0xaf, 0x39, 0xbe, 0xf0, 0x20, 0xdf, 0x3d, 0xe8, 0xb2, 0xa7, 0x3d,
  0x6f, 0x37, 0x66, 0x3e, 0xe5, 0x76, 0xfe, 0x3c, 0x90, 0xd0, 0x99, 0xbd,
  0x50, 0xcd, 0xcd, 0x3d, 0xed, 0x1c, 0xec, 0x3d, 0xe9, 0xaf, 0x64, 0x3e,
  0x79, 0xf4, 0x6b, 0x3e, 0xf2, 0x0c, 0x84, 0xbd, 0x88, 0x90, 0x14, 0x3e,
  0x64, 0xe8, 0x82, 0xbe, 0x3d, 0xb1, 0xfc, 0xbc, 0x6f, 0x36, 0xf6, 0x3d,
  0x48, 0x9d, 0x00, 0x3e, 0x81, 0x52, 0x25, 0xbc, 0x40, 0xa1, 0x8c, 0xbd,
  0x20, 0xba, 0x69, 0xbe, 0x04, 0xe8, 0x90, 0x3d, 0x0f, 0x3e, 0x8d, 0xbb,
  0x17, 0x81, 0xbf, 0xbc, 0x80, 0x66, 0x05, 0xbd, 0xc7, 0x1b, 0x0e, 0x3e,
  0xc8, 0x6e, 0x53, 0xbe, 0x70, 0x56, 0x8d, 0x3d, 0x0a, 0xfc, 0x5c, 0x3e,
  0xc1, 0x26, 0x24, 0x3e, 0xb2, 0x6e, 0xe3, 0xbd, 0x88, 0xbe, 0xed, 0xbd,
  0xf0, 0xb6, 0x70, 0xbe, 0x7e, 0x2a, 0x24, 0xbe, 0x00, 0x96, 0xee, 0x3c,
  0x60, 0x95, 0x43, 0xbe, 0xfc, 0x3f, 0xc0, 0x3d, 0x4a, 0xff, 0x13, 0x3e,
  0x57, 0xff, 0x3c, 0xbe, 0xe1, 0x55, 0x59, 0x3e, 0x8e, 0x60, 0x07, 0xbe,
  0x01, 0x39, 0x1c, 0x3e, 0x30, 0xac, 0x97, 0x3d, 0xa4, 0xfc, 0x0d, 0xbe,
  0x04, 0x6d, 0x11, 0x3e, 0x40, 0x5a, 0x10, 0x3e, 0xd0, 0xf8, 0x6a, 0xbe,
  0xc8, 0x7f, 0x32, 0x3e, 0x03, 0xe8, 0x3f, 0x3e, 0xb0, 0xe5, 0x75, 0x3d,
  0x40, 0x8f, 0x50, 0xbc, 0x78, 0x56, 0xdf, 0x3d, 0xc9, 0x72, 0x5b, 0xbb,
  0xac, 0xa5, 0x30, 0xbe, 0xbc, 0x2f, 0x0c, 0xbe, 0x74, 0x8a, 0x08, 0xbe,
  0xd6, 0xb2, 0x32, 0x3e, 0x24, 0x55, 0x0e, 0x3e, 0xd0, 0x7e, 0x4f, 0x3e,
  0x13, 0x70, 0x82, 0xbe, 0x70, 0x57, 0xfd, 0x3d, 0x14, 0xd0, 0x71, 0xbe,
  0x61, 0x19, 0x17, 0xbe, 0xc5, 0x8b, 0xfe, 0xbd, 0xda, 0xf1, 0x8c, 0xbd,
  0xc0, 0xfc, 0x02, 0xbe, 0x78, 0x8a, 0x65, 0xbd, 0xa7, 0xc4, 0x07, 0xbe,
  0x2b, 0x8a, 0x79, 0x3e, 0x50, 0x16, 0x1c, 0xbd, 0xc0, 0xaa, 0x8f, 0x3c,
  0xe4, 0x0e, 0x69, 0xbe, 0x98, 0x96, 0xc7, 0xbd, 0x18, 0xf2, 0xbf, 0xbd,
  0x91, 0xa5, 0x09, 0x3d, 0xb1, 0xcf, 0xde, 0x3d, 0xd8, 0xee, 0xb7, 0xbd,
  0x3e, 0x6c, 0x24, 0xbd, 0x88, 0x45, 0xb1, 0xbd, 0x18, 0xd9, 0x7c, 0xbe,
  0x88, 0x9d, 0x73, 0xbe, 0x5e, 0x7b, 0x62, 0x3d, 0xb7, 0x12, 0x3d, 0x3d,
  0x81, 0x59, 0xcd, 0x3d, 0x20, 0x19, 0x03, 0x3e, 0x1e, 0x4b, 0x99, 0xbd,
  0x00, 0x76, 0xab, 0xba, 0xf5, 0x3d, 0x82, 0xbd, 0xd7, 0x77, 0x30, 0xbe,
  0xdb, 0x1b, 0x82, 0xbe, 0xba, 0x18, 0xec, 0x3d, 0x27, 0xbf, 0x63, 0x3e,
  0xd0, 0x6c, 0x5d, 0xbe, 0x78, 0xed, 0x55, 0xbe, 0x08, 0x66, 0xd4, 0xbd,
  0xdf, 0x98, 0x95, 0x3c, 0x97, 0x46, 0x12, 0x3d, 0x24, 0x7b, 0x2e, 0xbe,
  0x31, 0xd0, 0x37, 0xbe, 0x8e, 0xc3, 0x76, 0xbd, 0x74, 0x70, 0x11, 0xbe,
  0xe3, 0xe4, 0x6a, 0xbe, 0xb4, 0xd3, 0xe3, 0x3d, 0x40, 0x6d, 0x7f, 0xbc,
  0xc1, 0x06, 0x05, 0x3e, 0xa6, 0x1e, 0xd2, 0xbd, 0x12, 0x7b, 0x96, 0x3a,
  0xc1, 0x7a, 0xc0, 0xbd, 0x46, 0x34, 0x58, 0x3e, 0x9c, 0xb1, 0x6f, 0xbe,
  0x4e, 0x04, 0x57, 0x3d, 0x1e, 0xa2, 0x4a, 0x3e, 0x5c, 0x46, 0xeb, 0xbd,
  0x73, 0x31, 0xaf, 0x3d, 0x4a, 0xe7, 0xba, 0x3d, 0xe7, 0xd8, 0x35, 0xbd,
  0x4a, 0x34, 0x2b, 0x3e, 0x33, 0x67, 0x02, 0xbd, 0xf4, 0xe5, 0x44, 0x3e,
  0x22, 0xa6, 0x20, 0xbc, 0xcc, 0xc1, 0x07, 0x3e, 0x44, 0x83, 0x24, 0xbe,
  0x4a, 0x53, 0x15, 0xbd, 0x14, 0x54, 0x54, 0xbe, 0xe8, 0xc1, 0x49, 0x3e,
  0x80, 0x8f, 0xbf, 0x3b, 0x45, 0x0c, 0x47, 0x3e, 0x87, 0x9a, 0x82, 0xbd,
  0x40, 0x08, 0x62, 0xbc, 0x08, 0xba, 0x82, 0xbe, 0x48, 0xc9, 0x05, 0xbe,
  0x54, 0xb7, 0x6b, 0xbe, 0x45, 0x42, 0x90, 0xbb, 0x54, 0x3b, 0xa4, 0x3d,
  0x90, 0xa3, 0xc9, 0xbc, 0x66, 0x7d, 0xef, 0xbb, 0xc8, 0x6b, 0x2c, 0xbe,
  0xe5, 0x48, 0x1a, 0xbd, 0x8b, 0xad, 0x7d, 0xbe, 0x9e, 0xd0, 0x7c, 0xbe,
  0xbf, 0x32, 0x64, 0x3e, 0xa0, 0x94, 0x97, 0x3c, 0x17, 0x03, 0x02, 0xbe,
  0x8e, 0xee, 0x90, 0xbc, 0x57, 0xdd, 0x8f, 0xbd, 0xb4, 0xff, 0x53, 0xbe,
  0x5a, 0xf5, 0xff, 0xff, 0x04, 0x00, 0x00, 0x00, 0x00, 0x08, 0x00, 0x00,
  0x6e, 0x79, 0x30, 0xbe, 0xde, 0x74, 0x53, 0xbe, 0xe2, 0xdf, 0x79, 0xbd,
  0xb9, 0xfe, 0x67, 0xbe, 0x2f, 0xbf, 0x9a, 0xbd, 0x38, 0x69, 0x8e, 0x3b,
  0x52, 0x16, 0x8b, 0xbe, 0x03, 0xb1, 0xb9, 0xbe, 0x86, 0xcf, 0x37, 0xbe,
  0x0f, 0xc1, 0x72, 0x3d, 0xaa, 0x1a, 0x6e, 0xbe, 0x24, 0x86, 0xdb, 0xbd,
  0x49, 0xcf, 0xb7, 0x3e, 0xe1, 0x10, 0xa7, 0x3e, 0x33, 0x5d, 0xb8, 0xbe,
  0xae, 0x0b, 0x83, 0x3e, 0x85, 0x2d, 0x2e, 0xbd, 0xc8, 0x8a, 0xac, 0x3e,
  0xa9, 0xf4, 0x84, 0x3e, 0xa2, 0xec, 0xc2, 0x38, 0xfb, 0xe5, 0x8c, 0x3d,
  0x19, 0x16, 0xaa, 0x3c, 0xb2, 0x42, 0x4a, 0x3e, 0xa5, 0x58, 0x47, 0x3e,
  0x0f, 0x77, 0x85, 0xbe, 0x8c, 0xba, 0xa8, 0x3e, 0xc5, 0x9e, 0x6d, 0x3e,
  0xff, 0xe0, 0x0f, 0x3e, 0xa1, 0x64, 0x90, 0x3e, 0xa2, 0xbc, 0x1f, 0x3e,
  0x77, 0x84, 0x36, 0xbe, 0xeb, 0x42, 0x3c, 0xbe, 0xb7, 0x66, 0x1c, 0x3e,
  0x51, 0x09, 0x65, 0x3c, 0xb7, 0x23, 0x85, 0xbe, 0x59, 0x65, 0xd3, 0x3d,
  0x9f, 0x18, 0x3c, 0xbe, 0x00, 0x61, 0x88, 0x3e, 0x26, 0x2b, 0x4d, 0xbe,
  0xb6, 0x71, 0x7b, 0xbe, 0xe7, 0x3f, 0xac, 0xbc, 0x91, 0xea, 0xc8, 0xbc,
  0x65, 0x44, 0x00, 0xbd, 0x04, 0x8b, 0x24, 0x3e, 0x11, 0xdb, 0x8c, 0xbe,
  0xbb, 0x7b, 0x91, 0x3e, 0x2a, 0x23, 0x77, 0xbe, 0x3a, 0x08, 0x92, 0xbb,
  0x1b, 0x6d, 0x8d, 0x3e, 0xf1, 0x24, 0xfe, 0x3d, 0x2e, 0x30, 0x90, 0xbe,
  0x89, 0x66, 0x9b, 0xbe, 0xce, 0x08, 0x45, 0x3e, 0xce, 0x5b, 0xa3, 0x3e,
  0xae, 0x21, 0x82, 0xbe, 0x9e, 0xbb, 0xd8, 0xbc, 0xc6, 0xd2, 0x26, 0x3d,
  0x25, 0x88, 0x83, 0xbe, 0x5b, 0xc9, 0xb1, 0xbd, 0xeb, 0x80, 0x66, 0xbd,
  0xb4, 0x80, 0xb8, 0x3d, 0x11, 0x6e, 0x62, 0x3e, 0xb7, 0x7f, 0x17, 0x3e,
  0x14, 0xf9, 0x95, 0xbe, 0x98, 0xa0, 0xe6, 0x3d, 0xc4, 0xf3, 0xbd, 0x3d,
  0xe2, 0x7c, 0xbe, 0xbc, 0xef, 0xd3, 0x6e, 0x3e, 0x6e, 0xbd, 0x1a, 0x3e,
  0x84, 0x9b, 0xa3, 0xbe, 0x42, 0xc4, 0x6f, 0x3e, 0xf8, 0x22, 0x98, 0xbe,
  0x16, 0x7c, 0x71, 0x3e, 0x91, 0xeb, 0xd8, 0x3d, 0xf9, 0xe0, 0x99, 0x3e,
  0x79, 0xc0, 0x9c, 0x3e, 0x6b, 0x91, 0xa8, 0xbd, 0x40, 0x7b, 0xb0, 0xbe,
  0x44, 0x23, 0x9e, 0xbd, 0xa9, 0xb0, 0x42, 0x3e, 0xad, 0xc0, 0xe2, 0xbd,
  0x7c, 0x22, 0x8a, 0x3e, 0x4a, 0xdb, 0xa5, 0xbd, 0x51, 0x92, 0xb0, 0x3e,
  0x83, 0xde, 0x3c, 0xbe, 0x1f, 0xb7, 0xae, 0xbd, 0xeb, 0x03, 0x8e, 0xbe,
  0x12, 0x3f, 0xf2, 0xbd, 0x76, 0x54, 0x2c, 0xbe, 0xca, 0xa0, 0xa2, 0x3e,
  0xe1, 0x61, 0xe0, 0xbd, 0xc7, 0x64, 0x56, 0xbc, 0xf0, 0x05, 0x92, 0xbe,
  0x6c, 0x71, 0x3a, 0xbe, 0xb5, 0xfa, 0x68, 0xbe, 0x2e, 0xb8, 0x79, 0x3e,
  0xdb, 0x40, 0x3a, 0x3e, 0x72, 0x83, 0x1a, 0x3e, 0x31, 0xd3, 0x92, 0x3e,
  0xc6, 0x62, 0x80, 0x3d, 0xe5, 0xa5, 0x03, 0xbe, 0x78, 0xd7, 0x13, 0x3e,
  0x66, 0xf0, 0x5b, 0xbd, 0x59, 0x30, 0x3f, 0xbe, 0x96, 0xee, 0xeb, 0x3d,
  0x7b, 0x9c, 0x76, 0xbe, 0xc2, 0xb0, 0xa5, 0x3e, 0xdd, 0x04, 0x04, 0xbd,
  0x14, 0xba, 0xe7, 0x3d, 0xb4, 0x5e, 0x23, 0x3e, 0x0d, 0x33, 0x82, 0x3e,
  0x13, 0x38, 0x9f, 0x3e, 0xae, 0x94, 0x49, 0xbe, 0x34, 0xa1, 0x7f, 0xbe,
  0xf5, 0x4c, 0xd9, 0xbb, 0x3b, 0x35, 0xb8, 0xbe, 0x89, 0x03, 0xe2, 0xbd,
  0x90, 0x88, 0xc2, 0x3d, 0x25, 0x30, 0xaa, 0x3d, 0x72, 0xd8, 0xad, 0xbd,
  0x96, 0x1a, 0x3a, 0xbc, 0x7e, 0x54, 0x5f, 0x3e, 0xeb, 0x15, 0x65, 0x3e,
  0x4e, 0xf5, 0x44, 0x3e, 0xe3, 0xac, 0x35, 0xbe, 0xd7, 0x38, 0x3d, 0xbe,
  0x70, 0x6d, 0x21, 0xbd, 0x79, 0x0d, 0xa8, 0xbe, 0x9c, 0xd6, 0x94, 0x3e,
  0x6b, 0x06, 0xa1, 0x3e, 0x9f, 0x28, 0x1f, 0xbe, 0x82, 0xdf, 0xac, 0x3e,
  0xba, 0x06, 0x07, 0xbe, 0x24, 0x35, 0xdf, 0xbb, 0x76, 0xa9, 0xcb, 0x3d,
  0x62, 0xa7, 0xa6, 0xbe, 0x43, 0x50, 0x59, 0xbe, 0xd8, 0xcf, 0x5d, 0xbe,
  0xe1, 0x63, 0xa7, 0xbd, 0x8c, 0xf8, 0xbd, 0x3d, 0x41, 0xbb, 0x22, 0xbe,
  0xf7, 0x90, 0x70, 0x3e, 0x7e, 0xf0, 0xc6, 0xbd, 0x89, 0xd4, 0x92, 0x3e,
  0x99, 0x09, 0x99, 0xbe, 0x90, 0x44, 0xd2, 0xbe, 0x7b, 0x99, 0x99, 0xbe,
  0x7b, 0xf0, 0x92, 0xbe, 0xa7, 0x57, 0xf5, 0xbb, 0x45, 0x77, 0xaa, 0x3e,
  0x82, 0x58, 0xba, 0xbe, 0x3c, 0x8b, 0x7c, 0xbe, 0x25, 0xac, 0xa1, 0x3e,
  0xa9, 0xd3, 0xae, 0x3d, 0x4a, 0xe8, 0xa0, 0xbe, 0x0e, 0xd4, 0x7d, 0x3e,
  0x84, 0x05, 0xa2, 0x3d, 0x29, 0xde, 0xa7, 0xbe, 0x6f, 0x75, 0x24, 0x3e,
  0x49, 0xdd, 0x4c, 0xbe, 0x2f, 0x0e, 0x58, 0x3e, 0x04, 0x60, 0x70, 0x3e,
  0xa5, 0x4c, 0x12, 0xbe, 0x28, 0x69, 0xb4, 0xbd, 0xfd, 0x2b, 0x8a, 0x3d,
  0x0a, 0xd8, 0xa8, 0x3e, 0x16, 0x72, 0x3f, 0xbe, 0x17, 0x39, 0x91, 0x3e,
  0x8b, 0xcf, 0x64, 0x3e, 0xc2, 0xbe, 0x11, 0xbd, 0x0b, 0xf8, 0xb9, 0x3d,
  0xf9, 0xe8, 0xf1, 0x3c, 0x9d, 0x95, 0x2f, 0x3e, 0x60, 0x80, 0xde, 0x3c,
  0xd8, 0x1a, 0x0e, 0x3e, 0xd6, 0x1a, 0xd5, 0x3d, 0x0c, 0x8d, 0x0b, 0x3e,
  0xc7, 0xd6, 0xb7, 0xbe, 0x77, 0xbf, 0xe8, 0x3d, 0x4c, 0x25, 0x3f, 0x3e,
  0x19, 0x41, 0x46, 0x3e, 0xf5, 0x3e, 0xe8, 0xbc, 0x37, 0x20, 0xa2, 0x3e,
  0xf1, 0x13, 0x5e, 0x3e, 0x12, 0xc8, 0x47, 0xbe, 0xb7, 0x33, 0x77, 0xbe,
  0x7c, 0x46, 0xe5, 0x3b, 0x43, 0xc5, 0x9b, 0x3e, 0x92, 0x15, 0x17, 0xbe,
  0xb1, 0xf8, 0xe8, 0xbc, 0x09, 0xad, 0x89, 0x3e, 0xa9, 0x17, 0x0f, 0xbe,
  0xc3, 0x19, 0xf6, 0x3d, 0x10, 0x42, 0x8f, 0x3e, 0xd0, 0x4e, 0xa4, 0x3d,
  0xb0, 0x37, 0x1f, 0xbe, 0x74, 0x7f, 0x88, 0x3e, 0xb1, 0x24, 0x67, 0xbe,
  0x96, 0x83, 0x6d, 0x3e, 0x8b, 0x82, 0x30, 0xbe, 0x58, 0xa0, 0x86, 0x3d,
  0x7e, 0x29, 0x9a, 0x3b, 0x86, 0x32, 0x90, 0xbe, 0x1c, 0x0d, 0x48, 0x3e,
  0x75, 0x53, 0x39, 0xbe, 0x82, 0x52, 0x3c, 0x3d, 0x24, 0xeb, 0x1e, 0x3e,
  0x99, 0x62, 0x83, 0x3e, 0xce, 0x28, 0xac, 0x3e, 0x7f, 0x10, 0x84, 0xbe,
  0xa6, 0x3e, 0x27, 0xbe, 0xfc, 0x47, 0xad, 0x3c, 0x7e, 0xe8, 0x10, 0xbc,
  0x39, 0x3e, 0x85, 0xbe, 0x07, 0xe5, 0x04, 0xbe, 0x7d, 0x9d, 0x79, 0xbe,
  0x0f, 0x69, 0x57, 0xbe, 0x90, 0xd2, 0xdc, 0x3c, 0x0f, 0xf7, 0x93, 0xbe,
  0x74, 0x4e, 0x93, 0xbe, 0xba, 0x5f, 0x13, 0x3e, 0x05, 0x03, 0x99, 0xbd,
  0xc5, 0xf8, 0x7c, 0xbc, 0x8d, 0xea, 0xee, 0x3d, 0x3f, 0x17, 0x3f, 0xbd,
  0xb3, 0xf5, 0x61, 0x3e, 0xb7, 0x41, 0x8d, 0x3e, 0x03, 0x97, 0x29, 0xbe,
  0xfd, 0xeb, 0x77, 0xbd, 0x66, 0x30, 0x1c, 0xbd, 0x4b, 0x8e, 0x81, 0x3d,
  0x20, 0xf3, 0x01, 0xbe, 0xe0, 0xfd, 0xac, 0x3e, 0x86, 0x8a, 0x02, 0xbe,
  0x45, 0xc8, 0x42, 0x3e, 0x85, 0x23, 0xad, 0x3d, 0x38, 0xcf, 0x14, 0x3e,
  0xa3, 0x69, 0x4a, 0x3c, 0xdf, 0x5c, 0x0e, 0xbe, 0x5f, 0x7c, 0x96, 0xbe,
  0x0a, 0xce, 0x16, 0x3d, 0x5f, 0xec, 0x7b, 0xbe, 0xf8, 0xb8, 0x9d, 0x3e,
  0x55, 0x0d, 0x6f, 0x3e, 0x60, 0x46, 0xe5, 0xbc, 0x67, 0x78, 0x44, 0xbd,
  0x26, 0x6b, 0x8b, 0xbe, 0x6b, 0x05, 0xd7, 0x3d, 0xd6, 0x0d, 0x9a, 0x3d,
  0x28, 0x99, 0x9e, 0xbe, 0xb7, 0x94, 0xab, 0xbe, 0x0b, 0x28, 0xc1, 0x3c,
  0x0e, 0xc9, 0x20, 0x3e, 0xb2, 0xa8, 0x8c, 0xbd, 0x4c, 0xfb, 0xf2, 0xbd,
  0xe9, 0xf6, 0xef, 0x3d, 0x8c, 0x59, 0x88, 0xbe, 0x1a, 0xeb, 0x7c, 0x3e,
  0x8d, 0x34, 0x9c, 0xbc, 0x3c, 0x4e, 0x6f, 0xbe, 0x21, 0x2c, 0xf8, 0x3b,
  0x82, 0xaa, 0x68, 0x3d, 0x3b, 0x72, 0x65, 0x3e, 0xe3, 0xc7, 0xac, 0x3b,
  0x69, 0x9f, 0xf0, 0x3d, 0x53, 0xe7, 0xc4, 0xbd, 0x19, 0x3f, 0x15, 0xbe,
  0xff, 0xa9, 0xa9, 0x3e, 0x68, 0xb4, 0x59, 0xbe, 0x0a, 0xc5, 0x78, 0xbd,
  0xf1, 0x3e, 0x90, 0xbe, 0xba, 0xe6, 0x30, 0xbc, 0x19, 0xb8, 0x91, 0x3d,
  0x6c, 0xc5, 0x4a, 0xbe, 0x5f, 0x07, 0x26, 0xbe, 0xbe, 0xde, 0xa1, 0xbe,
  0xba, 0x9a, 0x82, 0xbe, 0xf8, 0xb3, 0x9f, 0x3c, 0x7e, 0xae, 0x94, 0xbe,
  0x5c, 0xb0, 0x13, 0x3c, 0x52, 0xae, 0x75, 0x3e, 0x02, 0xa1, 0xc2, 0x3d,
  0xbd, 0xd9, 0x69, 0x3e, 0xbc, 0xd6, 0xa7, 0x3d, 0xca, 0xeb, 0x7b, 0x3e,
  0x94, 0x61, 0xae, 0x3d, 0xfc, 0xb3, 0x80, 0x3e, 0xab, 0x36, 0x03, 0x3c,
  0xfa, 0x8c, 0xc4, 0xbd, 0xcb, 0x3a, 0x58, 0xbe, 0xea, 0xd1, 0x0d, 0x3e,
  0xae, 0xea, 0x89, 0xbe, 0x05, 0x9d, 0x92, 0xbe, 0xfa, 0x5c, 0x46, 0xbe,
  0x93, 0xe2, 0x98, 0x3e, 0xdb, 0xd5, 0x38, 0x3e, 0x33, 0x31, 0x06, 0x3e,
  0xc8, 0x2d, 0xd2, 0xbe, 0xdc, 0xd2, 0x27, 0x3e, 0x8a, 0x7c, 0x89, 0x3e,
  0xa3, 0xf9, 0x8a, 0x3e, 0xfb, 0xde, 0x64, 0x3e, 0x46, 0x65, 0x13, 0x3e,
  0x44, 0xed, 0x64, 0x3d, 0x60, 0x66, 0x2f, 0x3c, 0xe1, 0x84, 0x30, 0xbd,
  0x62, 0x4a, 0x56, 0x3e, 0x3a, 0x37, 0x18, 0x3e, 0xff, 0xd5, 0x85, 0x3e,
  0x35, 0x2f, 0xa4, 0x3e, 0x3c, 0x3f, 0x91, 0x3e, 0x23, 0x52, 0x96, 0xbe,
  0xbd, 0xf0, 0x1d, 0x3d, 0x17, 0x5c, 0xfb, 0xbd, 0x47, 0xb7, 0x0e, 0xbe,
  0x10, 0xca, 0x54, 0x3d, 0x5c, 0x73, 0xfa, 0xbd, 0x5b, 0x8b, 0xca, 0x3d,
  0x95, 0x65, 0x90, 0xbe, 0x83, 0x1c, 0xae, 0x3d, 0xc7, 0x3e, 0xd1, 0xbd,
  0x44, 0xbd, 0x85, 0xbd, 0xd4, 0xaf, 0x19, 0xbe, 0xd7, 0xd0, 0x8f, 0x3e,
  0xc5, 0xa4, 0x1d, 0xbe, 0x06, 0x14, 0x4c, 0xbe, 0x1e, 0xc7, 0x99, 0x3e,
  0xf7, 0x8b, 0xa6, 0x3e, 0x04, 0xc8, 0x1f, 0xbe, 0x16, 0xef, 0x82, 0xbe,
  0x7f, 0xf1, 0xf4, 0xbd, 0x34, 0x8a, 0x59, 0x3c, 0x9f, 0x91, 0x9a, 0xbe,
  0xb4, 0x2f, 0x4a, 0x3e, 0x44, 0x54, 0x64, 0x3d, 0x0c, 0x66, 0xdf, 0xbd,
  0x6b, 0x9f, 0x80, 0xbd, 0x5d, 0x97, 0x94, 0xbe, 0x21, 0xf0, 0x99, 0xbe,
  0x49, 0xa1, 0x75, 0xbe, 0x2c, 0x21, 0xa0, 0x3e, 0x14, 0xf5, 0xbf, 0x3d,
  0x8c, 0x12, 0x9c, 0xbe, 0x23, 0x45, 0x8a, 0xbb, 0xbd, 0x58, 0x55, 0x3e,
  0xa6, 0xbc, 0x9c, 0x3e, 0x84, 0x77, 0x87, 0xbe, 0xcc, 0xff, 0x49, 0x3e,
  0x00, 0x04, 0x9f, 0xb9, 0xe8, 0x82, 0x83, 0x3b, 0x3f, 0x3d, 0x8a, 0xbb,
  0x5b, 0x2c, 0x31, 0xbe, 0xad, 0xbc, 0x6b, 0xbe, 0xa4, 0xcc, 0xb8, 0x3e,
  0x10, 0xed, 0x2d, 0xbe, 0x1c, 0xf7, 0x60, 0x3e, 0xa9, 0x3a, 0x9c, 0x3e,
  0x02, 0xab, 0xc0, 0x3d, 0x14, 0x2a, 0xa2, 0x3e, 0xcc, 0x5f, 0xd3, 0xbc,
  0x3b, 0x86, 0xbb, 0x3d, 0x5b, 0x69, 0x9c, 0xbc, 0x00, 0x0a, 0x07, 0xbd,
  0x8d, 0x91, 0x23, 0xbe, 0x95, 0x87, 0x83, 0xbe, 0xd8, 0xc8, 0xa2, 0x3e,
  0xb3, 0xd5, 0x9a, 0xbe, 0xa8, 0x37, 0x92, 0xbe, 0x2e, 0xd2, 0x28, 0x3e,
  0x29, 0xb7, 0x53, 0xbe, 0x96, 0xce, 0xb8, 0xbd, 0x5a, 0xf0, 0x8b, 0xbe,
  0x90, 0xf0, 0xe4, 0xb9, 0xc4, 0x06, 0xd0, 0xbd, 0x0a, 0x9a, 0xe6, 0x3d,
  0xa1, 0x77, 0xc9, 0x3d, 0xc9, 0x90, 0xde, 0xbd, 0x90, 0x1e, 0x95, 0x3e,
  0x92, 0xc1, 0x21, 0xbe, 0x0e, 0x85, 0x79, 0x3d, 0x7c, 0x57, 0x39, 0xbe,
  0xe7, 0x34, 0x1a, 0xbe, 0x50, 0x65, 0x0f, 0x3e, 0x4b, 0xde, 0x05, 0x3e,
  0x6b, 0xfb, 0xb6, 0xbd, 0x98, 0xbf, 0x73, 0xbd, 0x6a, 0xdd, 0x6b, 0x3d,
  0x73, 0x16, 0xee, 0xbd, 0xa1, 0x41, 0x30, 0xbe, 0x25, 0xbd, 0xbf, 0xbe,
  0xe0, 0x6e, 0xa2, 0x3e, 0xee, 0x95, 0x1f, 0x3e, 0xc2, 0x69, 0xac, 0xbe,
  0xfd, 0x3a, 0x68, 0xbe, 0x9c, 0xd7, 0x5f, 0x3e, 0x7b, 0x77, 0x97, 0xbe,
  0xed, 0xb9, 0x00, 0xbe, 0xf5, 0x08, 0x1e, 0xbe, 0x0a, 0xbf, 0x50, 0xbe,
  0x7e, 0x4f, 0x74, 0x3e, 0xfe, 0xf4, 0xa5, 0x3e, 0x59, 0xf8, 0x41, 0x3e,
  0xd6, 0xa3, 0x65, 0xbe, 0x07, 0xc3, 0x92, 0x3e, 0xd5, 0xc4, 0xae, 0x3e,
  0x6b, 0x45, 0x9e, 0xbe, 0x3d, 0x35, 0x69, 0x3e, 0x09, 0xad, 0x18, 0x3e,
  0xc4, 0x5e, 0x46, 0xbe, 0xa5, 0x69, 0x7c, 0x3e, 0xfb, 0x87, 0x57, 0xbe,
  0xbc, 0x4b, 0x87, 0x3e, 0x04, 0xba, 0x67, 0xbe, 0x86, 0x4e, 0x98, 0x3e,
  0x92, 0x12, 0x42, 0x3e, 0xb6, 0x8d, 0x94, 0x3d, 0xed, 0xb5, 0x83, 0x3e,
  0x13, 0xab, 0x28, 0x3e, 0xf0, 0x59, 0xb4, 0x3e, 0xce, 0xab, 0x40, 0x3e,
  0xb7, 0x94, 0xce, 0xbd, 0x0b, 0x31, 0x13, 0xbd, 0xef, 0xea, 0xcb, 0x3d,
  0x5f, 0x70, 0x76, 0xbe, 0x17, 0x32, 0x59, 0x3e, 0x97, 0x39, 0x8a, 0xbe,
  0x82, 0xa2, 0x47, 0x3c, 0xe4, 0x03, 0xd9, 0x3d, 0x4a, 0xcf, 0x36, 0x3e,
  0x55, 0x53, 0x8b, 0xbe, 0x38, 0x1e, 0x69, 0xbd, 0x9c, 0x99, 0x22, 0xbe,
  0xf2, 0xf8, 0x62, 0xbe, 0xe1, 0xf3, 0x67, 0x3e, 0x8a, 0x46, 0x70, 0x3d,
  0x40, 0x3b, 0xa8, 0x3e, 0x1a, 0xf5, 0x49, 0xbe, 0xf2, 0x26, 0x8f, 0xbe,
  0x8d, 0x51, 0x9e, 0xbe, 0xaf, 0xae, 0x48, 0xbe, 0x8d, 0x5e, 0x23, 0x3e,
  0x59, 0x13, 0xea, 0x3d, 0xee, 0x5f, 0x2b, 0xbe, 0x3b, 0x88, 0x81, 0xbe,
  0xc1, 0xfb, 0x39, 0xbe, 0xb0, 0x14, 0x6e, 0xbe, 0x49, 0x9c, 0x95, 0xbe,
  0x73, 0x93, 0x7e, 0x3e, 0x3b, 0xbf, 0x02, 0x3e, 0xf5, 0xb7, 0xd6, 0xbd,
  0xca, 0xb6, 0xa5, 0x3d, 0x09, 0x44, 0x54, 0x3e, 0x20, 0x8d, 0x8e, 0xbe,
  0xce, 0xff, 0xef, 0x3d, 0xbd, 0xbc, 0x0d, 0x3e, 0xd0, 0x45, 0x44, 0x3e,
  0xce, 0xb2, 0x03, 0xbe, 0xf9, 0xb0, 0xa9, 0xbe, 0x6d, 0xab, 0x87, 0x3e,
  0x2e, 0xa6, 0x3f, 0xbc, 0xba, 0xbe, 0x8e, 0xbe, 0x69, 0xc4, 0x59, 0x3e,
  0xcc, 0x78, 0x3a, 0xbe, 0x7e, 0x88, 0xe0, 0xbd, 0x22, 0xad, 0x02, 0x3e,
  0xb4, 0x6a, 0x38, 0xbe, 0x84, 0xfb, 0x98, 0xbd, 0xc5, 0x9c, 0x65, 0x3e,
  0x70, 0x50, 0x58, 0x3e, 0xac, 0xf7, 0xd6, 0xbc, 0x7f, 0x47, 0x90, 0xbe,
  0x04, 0xd3, 0xae, 0xbc, 0xcc, 0xa2, 0x70, 0xbd, 0x8f, 0x15, 0x03, 0xbe,
  0x31, 0x21, 0x84, 0x3e, 0xe8, 0xc8, 0x13, 0x3e, 0x44, 0xbd, 0xf3, 0xbd,
  0xa1, 0xcb, 0x06, 0xbe, 0x2f, 0xbc, 0x1a, 0x3e, 0x8c, 0x15, 0xd3, 0x3c,
  0xf4, 0x77, 0x92, 0x3d, 0xf9, 0x11, 0xb1, 0x3b, 0xc1, 0xcc, 0xaa, 0x3e,
  0xf4, 0x22, 0x9e, 0x3e, 0x7c, 0xaa, 0x97, 0x3e, 0xc8, 0xbe, 0xc8, 0x3d,
  0x54, 0x52, 0x98, 0xbe, 0xe8, 0xad, 0x17, 0xbe, 0xac, 0x59, 0x85, 0x3e,
  0x84, 0x48, 0x74, 0x3e, 0x8b, 0xb2, 0x26, 0x3e, 0x00, 0x35, 0x50, 0x3e,
  0x2d, 0xac, 0x89, 0x3e, 0x1b, 0xcf, 0x6a, 0x3e, 0x58, 0xdf, 0x48, 0x3e,
  0x04, 0xaa, 0x96, 0xbe, 0xcf, 0x0e, 0x2c, 0x3e, 0xe4, 0xcc, 0x6c, 0x3e,
  0x54, 0x60, 0x08, 0x3e, 0x96, 0x4a, 0x93, 0xbe, 0x0c, 0x79, 0x87, 0xbe,
  0xc8, 0xa3, 0xaa, 0x3e, 0x5e, 0xdf, 0x9e, 0xbe, 0x6f, 0xa0, 0x91, 0xbe,
  0x9a, 0xd3, 0x93, 0x3e, 0x88, 0xcc, 0x56, 0x3e, 0x02, 0x38, 0x8a, 0xbd,
  0xd7, 0x88, 0xb1, 0x3e, 0x74, 0xb8, 0x7b, 0xbe, 0x31, 0x0d, 0x9c, 0xbe,
  0x79, 0x35, 0x9f, 0x3d, 0xf3, 0xd4, 0x6d, 0xbe, 0x66, 0xfd, 0xff, 0xff,
  0x04, 0x00, 0x00, 0x00, 0x00, 0x02, 0x00, 0x00, 0xb8, 0x1a, 0x09, 0xbf,
  0x0a, 0x15, 0x17, 0x3e, 0x15, 0x41, 0xb1, 0xbe, 0x63, 0x9d, 0x02, 0x3f,
  0xc0, 0x60, 0x27, 0x3b, 0x5d, 0x01, 0x9a, 0x3d, 0x35, 0x28, 0x66, 0x3d,
  0x50, 0xd4, 0x9e, 0xbe, 0x7e, 0xdf, 0x12, 0xbd, 0x5d, 0xdf, 0xdf, 0x3e,
  0x04, 0xf8, 0xfb, 0x3e, 0x3b, 0xf0, 0xc4, 0x3e, 0xc7, 0x3d, 0x55, 0x3e,
  0xab, 0xa9, 0xd1, 0x3c, 0xac, 0x1d, 0x34, 0x3e, 0xcf, 0x8f, 0x0f, 0xbf,
  0x96, 0xba, 0x66, 0xbe, 0x2a, 0x08, 0x9e, 0x3e, 0x06, 0x7a, 0xc8, 0xbd,
  0xf2, 0xa3, 0xc9, 0x3e, 0x35, 0x70, 0xc2, 0xbe, 0xff, 0x10, 0xb4, 0x3e,
  0xa1, 0xb6, 0xa4, 0xbc, 0xce, 0x2c, 0x13, 0x3e, 0x6b, 0x74, 0xe1, 0xbe,
  0xc7, 0x49, 0x7d, 0x3d, 0xa9, 0x86, 0x23, 0x3e, 0x91, 0x54, 0xc2, 0x3e,
  0x4c, 0x89, 0x48, 0xbe, 0xfa, 0xb3, 0xf1, 0x3e, 0xd6, 0x9d, 0xb2, 0xbe,
  0xab, 0x9f, 0x78, 0x3c, 0x4a, 0x94, 0xe1, 0xbe, 0x20, 0x0f, 0xf7, 0xbe,
  0xe8, 0x0d, 0xde, 0x3e, 0x76, 0xb9, 0xb0, 0xbe, 0x8b, 0x78, 0x5f, 0xbc,
  0x3d, 0xb2, 0xe8, 0x3e, 0x82, 0xd4, 0xbf, 0x3d, 0x51, 0xbf, 0x07, 0xbf,
  0xa1, 0xfd, 0xac, 0xbe, 0x33, 0x3a, 0x3f, 0xbe, 0x5d, 0x88, 0xd5, 0xbc,
  0x83, 0x80, 0x30, 0x3e, 0x7f, 0x41, 0xee, 0x3e, 0x51, 0x3d, 0xca, 0xbd,
  0x11, 0x0c, 0x93, 0x3e, 0x25, 0xd1, 0xab, 0xbc, 0x05, 0x81, 0xbc, 0x3b,
  0x74, 0x67, 0x05, 0x3f, 0x86, 0xe6, 0x50, 0x3d, 0xb9, 0xa8, 0x68, 0xbe,
  0xb6, 0xf7, 0x13, 0xbf, 0x0e, 0x46, 0x00, 0xbe, 0xe8, 0xee, 0x3e, 0xbc,
  0xbb, 0xf7, 0x5e, 0xbe, 0xb6, 0x0e, 0xa6, 0xbe, 0x82, 0xc1, 0x70, 0xbc,
  0xfb, 0x2d, 0xb6, 0xbe, 0x9d, 0xa8, 0xbd, 0x3e, 0x94, 0xa0, 0xa9, 0x3d,
  0x24, 0x14, 0xc6, 0x3e, 0x47, 0x46, 0x6a, 0xbe, 0x93, 0xc0, 0xcf, 0x3e,
  0x88, 0x22, 0x0f, 0x3e, 0x38, 0xca, 0x19, 0xbe, 0x18, 0xfd, 0x4c, 0x3e,
  0x54, 0x28, 0x93, 0xbe, 0xa8, 0x54, 0x32, 0x3e, 0xe0, 0x1b, 0x22, 0xbe,
  0x14, 0x34, 0x85, 0xbe, 0xc0, 0x35, 0xc6, 0xbd, 0x80, 0x4d, 0xb5, 0x3d,
  0x00, 0xc3, 0x67, 0x3c, 0x18, 0xed, 0x71, 0xbe, 0xb0, 0x89, 0xa3, 0x3e,
  0x38, 0x3c, 0x96, 0xbe, 0x70, 0x0e, 0xc7, 0x3e, 0x00, 0xac, 0x2b, 0xbb,
  0x10, 0x8f, 0xe8, 0xbe, 0x9b, 0x29, 0xe2, 0xbe, 0xa8, 0x8d, 0x3c, 0xbe,
  0xaf, 0x73, 0x8f, 0xbe, 0xf1, 0xba, 0x86, 0xbe, 0xd0, 0x43, 0x65, 0x3e,
  0x5a, 0xb2, 0x83, 0x3d, 0xee, 0x3e, 0x2e, 0x3e, 0xe8, 0x6e, 0x00, 0x3f,
  0xff, 0x22, 0xac, 0xbb, 0x34, 0x82, 0x15, 0xbe, 0x94, 0xae, 0x9a, 0x3d,
  0x77, 0xf7, 0x16, 0x3f, 0x92, 0x44, 0xf3, 0x3e, 0x04, 0x62, 0xa8, 0xbe,
  0x41, 0x77, 0xa8, 0xbe, 0x32, 0x90, 0x60, 0x3d, 0x01, 0x51, 0xd2, 0x3e,
  0xa5, 0x81, 0x0e, 0xbe, 0x94, 0xbf, 0xad, 0x3e, 0x5e, 0xb1, 0x1b, 0xbe,
  0xa8, 0xc2, 0xf8, 0xbd, 0x6b, 0xf4, 0xc1, 0x3e, 0x08, 0x94, 0xe8, 0xbe,
  0x12, 0x8d, 0xe7, 0x3e, 0x3d, 0xfc, 0xf2, 0x3e, 0xde, 0xe0, 0xd9, 0xbe,
  0x60, 0x38, 0xee, 0xbe, 0x2a, 0x1f, 0x0c, 0x3f, 0x83, 0xe6, 0xd0, 0xbe,
  0x56, 0xfc, 0xea, 0xbe, 0x4f, 0xab, 0x64, 0x3e, 0xe0, 0xb6, 0xeb, 0x3e,
  0x40, 0x8f, 0xa9, 0xbe, 0x1f, 0x37, 0x8f, 0x3e, 0xe3, 0x23, 0xd1, 0x3e,
  0x94, 0xaa, 0x88, 0xbc, 0xda, 0x76, 0xd8, 0x3e, 0x26, 0x47, 0x22, 0x3e,
  0x00, 0xa2, 0x50, 0xbe, 0x5b, 0xe8, 0xed, 0x3e, 0xe8, 0x2c, 0xde, 0xbe,
  0x6e, 0x7c, 0xeb, 0x3d, 0xf3, 0x93, 0xe9, 0x3e, 0xab, 0xa8, 0xab, 0x3e,
  0xcc, 0xe3, 0x27, 0x3e, 0x39, 0x24, 0xc9, 0xbd, 0x3e, 0xec, 0xe4, 0x3e,
  0xbf, 0xe4, 0x03, 0xbf, 0x72, 0xff, 0xff, 0xff, 0x04, 0x00, 0x00, 0x00,
  0x80, 0x00, 0x00, 0x00, 0xfb, 0x43, 0x1a, 0x3f, 0x36, 0x0c, 0x7b, 0x3e,
  0x62, 0x0f, 0x3b, 0xbf, 0x4a, 0xce, 0x4c, 0xbf, 0x1d, 0x4a, 0x2e, 0x3f,
  0x10, 0xe5, 0x8e, 0x3e, 0x16, 0x25, 0x46, 0xbf, 0xd9, 0x0c, 0x03, 0x3f,
  0xcb, 0xc2, 0xde, 0x3d, 0xd9, 0xee, 0x84, 0xbe, 0xb5, 0x99, 0x3e, 0x3e,
  0x8c, 0xe0, 0xb9, 0xbe, 0x60, 0x00, 0xae, 0x3d, 0xb5, 0xcc, 0x8b, 0x3e,
  0x23, 0x20, 0xfd, 0xbe, 0x14, 0x82, 0xb0, 0x3e, 0x5b, 0xb9, 0xb1, 0x3e,
  0x15, 0x63, 0xb0, 0xbe, 0xc6, 0xf2, 0x09, 0x3f, 0x1d, 0x24, 0xa9, 0xbc,
  0x27, 0x8c, 0x28, 0xbf, 0x28, 0x10, 0x72, 0x3d, 0xf8, 0x96, 0x5d, 0xbe,
  0xe4, 0x00, 0x89, 0x3e, 0x80, 0xd8, 0x30, 0xbd, 0x8b, 0x00, 0xfd, 0xbe,
  0xaf, 0x04, 0x26, 0xbc, 0x59, 0xb0, 0x00, 0xbf, 0xa5, 0x4d, 0x08, 0x3f,
  0xfa, 0xa7, 0x29, 0xbe, 0xa2, 0x66, 0x98, 0x3e, 0x67, 0x10, 0x41, 0xbe,
  0x00, 0x00, 0x06, 0x00, 0x08, 0x00, 0x04, 0x00, 0x06, 0x00, 0x00, 0x00,
  0x04, 0x00, 0x00, 0x00, 0x10, 0x00, 0x00, 0x00, 0x37, 0x02, 0x63, 0x3f,
  0x3d, 0x90, 0xeb, 0x3e, 0x1a, 0x60, 0x51, 0xbd, 0xef, 0xb5, 0xaf, 0xbd,
  0x0c, 0xf7, 0xff, 0xff, 0x10, 0xf7, 0xff, 0xff, 0x0f, 0x00, 0x00, 0x00,
  0x4d, 0x4c, 0x49, 0x52, 0x20, 0x43, 0x6f, 0x6e, 0x76, 0x65, 0x72, 0x74,
  0x65, 0x64, 0x2e, 0x00, 0x01, 0x00, 0x00, 0x00, 0x14, 0x00, 0x00, 0x00,
  0x00, 0x00, 0x0e, 0x00, 0x18, 0x00, 0x14, 0x00, 0x10, 0x00, 0x0c, 0x00,
  0x08, 0x00, 0x04, 0x00, 0x0e, 0x00, 0x00, 0x00, 0x14, 0x00, 0x00, 0x00,
  0x1c, 0x00, 0x00, 0x00, 0x80, 0x01, 0x00, 0x00, 0x84, 0x01, 0x00, 0x00,
  0x88, 0x01, 0x00, 0x00, 0x04, 0x00, 0x00, 0x00, 0x6d, 0x61, 0x69, 0x6e,
  0x00, 0x00, 0x00, 0x00, 0x06, 0x00, 0x00, 0x00, 0x28, 0x01, 0x00, 0x00,
  0xe0, 0x00, 0x00, 0x00, 0xa8, 0x00, 0x00, 0x00, 0x70, 0x00, 0x00, 0x00,
  0x38, 0x00, 0x00, 0x00, 0x04, 0x00, 0x00, 0x00, 0xfe, 0xfe, 0xff, 0xff,
  0x10, 0x00, 0x00, 0x00, 0x00, 0x00, 0x00, 0x08, 0x0c, 0x00, 0x00, 0x00,
  0x10, 0x00, 0x00, 0x00, 0x94, 0xf7, 0xff, 0xff, 0x01, 0x00, 0x00, 0x00,
  0x12, 0x00, 0x00, 0x00, 0x03, 0x00, 0x00, 0x00, 0x11, 0x00, 0x00, 0x00,
  0x01, 0x00, 0x00, 0x00, 0x06, 0x00, 0x00, 0x00, 0x2e, 0xff, 0xff, 0xff,
  0x10, 0x00, 0x00, 0x00, 0x00, 0x00, 0x00, 0x08, 0x10, 0x00, 0x00, 0x00,
  0x14, 0x00, 0x00, 0x00, 0x1e, 0xff, 0xff, 0xff, 0x00, 0x00, 0x00, 0x01,
  0x01, 0x00, 0x00, 0x00, 0x11, 0x00, 0x00, 0x00, 0x03, 0x00, 0x00, 0x00,
  0x10, 0x00, 0x00, 0x00, 0x02, 0x00, 0x00, 0x00, 0x07, 0x00, 0x00, 0x00,
  0x62, 0xff, 0xff, 0xff, 0x10, 0x00, 0x00, 0x00, 0x00, 0x00, 0x00, 0x08,
  0x10, 0x00, 0x00, 0x00, 0x14, 0x00, 0x00, 0x00, 0x52, 0xff, 0xff, 0xff,
  0x00, 0x00, 0x00, 0x01, 0x01, 0x00, 0x00, 0x00, 0x10, 0x00, 0x00, 0x00,
  0x03, 0x00, 0x00, 0x00, 0x0f, 0x00, 0x00, 0x00, 0x03, 0x00, 0x00, 0x00,
  0x08, 0x00, 0x00, 0x00, 0x96, 0xff, 0xff, 0xff, 0x10, 0x00, 0x00, 0x00,
  0x00, 0x00, 0x00, 0x08, 0x10, 0x00, 0x00, 0x00, 0x14, 0x00, 0x00, 0x00,
  0x86, 0xff, 0xff, 0xff, 0x00, 0x00, 0x00, 0x01, 0x01, 0x00, 0x00, 0x00,
  0x0f, 0x00, 0x00, 0x00, 0x03, 0x00, 0x00, 0x00, 0x0e, 0x00, 0x00, 0x00,
  0x04, 0x00, 0x00, 0x00, 0x09, 0x00, 0x00, 0x00, 0xca, 0xff, 0xff, 0xff,
  0x10, 0x00, 0x00, 0x00, 0x00, 0x00, 0x00, 0x08, 0x10, 0x00, 0x00, 0x00,
  0x14, 0x00, 0x00, 0x00, 0xba, 0xff, 0xff, 0xff, 0x00, 0x00, 0x00, 0x01,
  0x01, 0x00, 0x00, 0x00, 0x0e, 0x00, 0x00, 0x00, 0x03, 0x00, 0x00, 0x00,
  0x0d, 0x00, 0x00, 0x00, 0x05, 0x00, 0x00, 0x00, 0x0a, 0x00, 0x00, 0x00,
  0x00, 0x00, 0x0e, 0x00, 0x16, 0x00, 0x00, 0x00, 0x10, 0x00, 0x0c, 0x00,
  0x0b, 0x00, 0x04, 0x00, 0x0e, 0x00, 0x00, 0x00, 0x18, 0x00, 0x00, 0x00,
  0x00, 0x00, 0x00, 0x08, 0x18, 0x00, 0x00, 0x00, 0x1c, 0x00, 0x00, 0x00,
  0x00, 0x00, 0x06, 0x00, 0x08, 0x00, 0x07, 0x00, 0x06, 0x00, 0x00, 0x00,
  0x00, 0x00, 0x00, 0x01, 0x01, 0x00, 0x00, 0x00, 0x0d, 0x00, 0x00, 0x00,
  0x03, 0x00, 0x00, 0x00, 0x00, 0x00, 0x00, 0x00, 0x0c, 0x00, 0x00, 0x00,
  0x0b, 0x00, 0x00, 0x00, 0x01, 0x00, 0x00, 0x00, 0x12, 0x00, 0x00, 0x00,
  0x01, 0x00, 0x00, 0x00, 0x00, 0x00, 0x00, 0x00, 0x13, 0x00, 0x00, 0x00,
  0xf8, 0x06, 0x00, 0x00, 0xa0, 0x06, 0x00, 0x00, 0x48, 0x06, 0x00, 0x00,
  0x08, 0x06, 0x00, 0x00, 0xc8, 0x05, 0x00, 0x00, 0x88, 0x05, 0x00, 0x00,
  0x4c, 0x05, 0x00, 0x00, 0x10, 0x05, 0x00, 0x00, 0xd4, 0x04, 0x00, 0x00,
  0x98, 0x04, 0x00, 0x00, 0x5c, 0x04, 0x00, 0x00, 0xfc, 0x03, 0x00, 0x00,
  0xa8, 0x03, 0x00, 0x00, 0x00, 0x03, 0x00, 0x00, 0x58, 0x02, 0x00, 0x00,
  0xb0, 0x01, 0x00, 0x00, 0x08, 0x01, 0x00, 0x00, 0x60, 0x00, 0x00, 0x00,
  0x04, 0x00, 0x00, 0x00, 0x6a, 0xf9, 0xff, 0xff, 0x00, 0x00, 0x00, 0x01,
  0x14, 0x00, 0x00, 0x00, 0x1c, 0x00, 0x00, 0x00, 0x1c, 0x00, 0x00, 0x00,
  0x13, 0x00, 0x00, 0x00, 0x34, 0x00, 0x00, 0x00, 0x02, 0x00, 0x00, 0x00,
  0xff, 0xff, 0xff, 0xff, 0x01, 0x00, 0x00, 0x00, 0x54, 0xf9, 0xff, 0xff,
  0x1b, 0x00, 0x00, 0x00, 0x53, 0x74, 0x61, 0x74, 0x65, 0x66, 0x75, 0x6c,
  0x50, 0x61, 0x72, 0x74, 0x69, 0x74, 0x69, 0x6f, 0x6e, 0x65, 0x64, 0x43,
  0x61, 0x6c, 0x6c, 0x5f, 0x31, 0x3a, 0x30, 0x00, 0x02, 0x00, 0x00, 0x00,
  0x01, 0x00, 0x00, 0x00, 0x01, 0x00, 0x00, 0x00, 0xc2, 0xf9, 0xff, 0xff,
  0x00, 0x00, 0x00, 0x01, 0x14, 0x00, 0x00, 0x00, 0x1c, 0x00, 0x00, 0x00,
  0x1c, 0x00, 0x00, 0x00, 0x12, 0x00, 0x00, 0x00, 0x80, 0x00, 0x00, 0x00,
  0x02, 0x00, 0x00, 0x00, 0xff, 0xff, 0xff, 0xff, 0x04, 0x00, 0x00, 0x00,
  0xac, 0xf9, 0xff, 0xff, 0x64, 0x00, 0x00, 0x00, 0x73, 0x65, 0x71, 0x75,
  0x65, 0x6e, 0x74, 0x69, 0x61, 0x6c, 0x5f, 0x32, 0x30, 0x5f, 0x31, 0x2f,
  0x64, 0x65, 0x6e, 0x73, 0x65, 0x5f, 0x39, 0x33, 0x5f, 0x31, 0x2f, 0x4d,
  0x61, 0x74, 0x4d, 0x75, 0x6c, 0x3b, 0x73, 0x65, 0x71, 0x75, 0x65, 0x6e,
  0x74, 0x69, 0x61, 0x6c, 0x5f, 0x32, 0x30, 0x5f, 0x31, 0x2f, 0x64, 0x65,
  0x6e, 0x73, 0x65, 0x5f, 0x39, 0x33, 0x5f, 0x31, 0x2f, 0x52, 0x65, 0x6c,
  0x75, 0x3b, 0x73, 0x65, 0x71, 0x75, 0x65, 0x6e, 0x74, 0x69, 0x61, 0x6c,
  0x5f, 0x32, 0x30, 0x5f, 0x31, 0x2f, 0x64, 0x65, 0x6e, 0x73, 0x65, 0x5f,
  0x39, 0x33, 0x5f, 0x31, 0x2f, 0x42, 0x69, 0x61, 0x73, 0x41, 0x64, 0x64,
  0x00, 0x00, 0x00, 0x00, 0x02, 0x00, 0x00, 0x00, 0x01, 0x00, 0x00, 0x00,
  0x04, 0x00, 0x00, 0x00, 0x66, 0xfa, 0xff, 0xff, 0x00, 0x00, 0x00, 0x01,
  0x14, 0x00, 0x00, 0x00, 0x1c, 0x00, 0x00, 0x00, 0x1c, 0x00, 0x00, 0x00,
  0x11, 0x00, 0x00, 0x00, 0x80, 0x00, 0x00, 0x00, 0x02, 0x00, 0x00, 0x00,
  0xff, 0xff, 0xff, 0xff, 0x08, 0x00, 0x00, 0x00, 0x50, 0xfa, 0xff, 0xff,
  0x64, 0x00, 0x00, 0x00, 0x73, 0x65, 0x71, 0x75, 0x65, 0x6e, 0x74, 0x69,
  0x61, 0x6c, 0x5f, 0x32, 0x30, 0x5f, 0x31, 0x2f, 0x64, 0x65, 0x6e, 0x73,
  0x65, 0x5f, 0x39, 0x32, 0x5f, 0x31, 0x2f, 0x4d, 0x61, 0x74, 0x4d, 0x75,
  0x6c, 0x3b, 0x73, 0x65, 0x71, 0x75, 0x65, 0x6e, 0x74, 0x69, 0x61, 0x6c,
  0x5f, 0x32, 0x30, 0x5f, 0x31, 0x2f, 0x64, 0x65, 0x6e, 0x73, 0x65, 0x5f,
  0x39, 0x32, 0x5f, 0x31, 0x2f, 0x52, 0x65, 0x6c, 0x75, 0x3b, 0x73, 0x65,
  0x71, 0x75, 0x65, 0x6e, 0x74, 0x69, 0x61, 0x6c, 0x5f, 0x32, 0x30, 0x5f,
  0x31, 0x2f, 0x64, 0x65, 0x6e, 0x73, 0x65, 0x5f, 0x39, 0x32, 0x5f, 0x31,
  0x2f, 0x42, 0x69, 0x61, 0x73, 0x41, 0x64, 0x64, 0x00, 0x00, 0x00, 0x00,
  0x02, 0x00, 0x00, 0x00, 0x01, 0x00, 0x00, 0x00, 0x08, 0x00, 0x00, 0x00,
  0x0a, 0xfb, 0xff, 0xff, 0x00, 0x00, 0x00, 0x01, 0x14, 0x00, 0x00, 0x00,
  0x1c, 0x00, 0x00, 0x00, 0x1c, 0x00, 0x00, 0x00, 0x10, 0x00, 0x00, 0x00,
  0x80, 0x00, 0x00, 0x00, 0x02, 0x00, 0x00, 0x00, 0xff, 0xff, 0xff, 0xff,
  0x10, 0x00, 0x00, 0x00, 0xf4, 0xfa, 0xff, 0xff, 0x64, 0x00, 0x00, 0x00,
  0x73, 0x65, 0x71, 0x75, 0x65, 0x6e, 0x74, 0x69, 0x61, 0x6c, 0x5f, 0x32,
  0x30, 0x5f, 0x31, 0x2f, 0x64, 0x65, 0x6e, 0x73, 0x65, 0x5f, 0x39, 0x31,
  0x5f, 0x31, 0x2f, 0x4d, 0x61, 0x74, 0x4d, 0x75, 0x6c, 0x3b, 0x73, 0x65,
  0x71, 0x75, 0x65, 0x6e, 0x74, 0x69, 0x61, 0x6c, 0x5f, 0x32, 0x30, 0x5f,
  0x31, 0x2f, 0x64, 0x65, 0x6e, 0x73, 0x65, 0x5f, 0x39, 0x31, 0x5f, 0x31,
  0x2f, 0x52, 0x65, 0x6c, 0x75, 0x3b, 0x73, 0x65, 0x71, 0x75, 0x65, 0x6e,
  0x74, 0x69, 0x61, 0x6c, 0x5f, 0x32, 0x30, 0x5f, 0x31, 0x2f, 0x64, 0x65,
  0x6e, 0x73, 0x65, 0x5f, 0x39, 0x31, 0x5f, 0x31, 0x2f, 0x42, 0x69, 0x61,
  0x73, 0x41, 0x64, 0x64, 0x00, 0x00, 0x00, 0x00, 0x02, 0x00, 0x00, 0x00,
  0x01, 0x00, 0x00, 0x00, 0x10, 0x00, 0x00, 0x00, 0xae, 0xfb, 0xff, 0xff,
  0x00, 0x00, 0x00, 0x01, 0x14, 0x00, 0x00, 0x00, 0x1c, 0x00, 0x00, 0x00,
  0x1c, 0x00, 0x00, 0x00, 0x0f, 0x00, 0x00, 0x00, 0x80, 0x00, 0x00, 0x00,
  0x02, 0x00, 0x00, 0x00, 0xff, 0xff, 0xff, 0xff, 0x20, 0x00, 0x00, 0x00,
  0x98, 0xfb, 0xff, 0xff, 0x64, 0x00, 0x00, 0x00, 0x73, 0x65, 0x71, 0x75,
  0x65, 0x6e, 0x74, 0x69, 0x61, 0x6c, 0x5f, 0x32, 0x30, 0x5f, 0x31, 0x2f,
  0x64, 0x65, 0x6e, 0x73, 0x65, 0x5f, 0x39, 0x30, 0x5f, 0x31, 0x2f, 0x4d,
  0x61, 0x74, 0x4d, 0x75, 0x6c, 0x3b, 0x73, 0x65, 0x71, 0x75, 0x65, 0x6e,
  0x74, 0x69, 0x61, 0x6c, 0x5f, 0x32, 0x30, 0x5f, 0x31, 0x2f, 0x64, 0x65,
  0x6e, 0x73, 0x65, 0x5f, 0x39, 0x30, 0x5f, 0x31, 0x2f, 0x52, 0x65, 0x6c,
  0x75, 0x3b, 0x73, 0x65, 0x71, 0x75, 0x65, 0x6e, 0x74, 0x69, 0x61, 0x6c,
  0x5f, 0x32, 0x30, 0x5f, 0x31, 0x2f, 0x64, 0x65, 0x6e, 0x73, 0x65, 0x5f,
  0x39, 0x30, 0x5f, 0x31, 0x2f, 0x42, 0x69, 0x61, 0x73, 0x41, 0x64, 0x64,
  0x00, 0x00, 0x00, 0x00, 0x02, 0x00, 0x00, 0x00, 0x01, 0x00, 0x00, 0x00,
  0x20, 0x00, 0x00, 0x00, 0x52, 0xfc, 0xff, 0xff, 0x00, 0x00, 0x00, 0x01,
  0x14, 0x00, 0x00, 0x00, 0x1c, 0x00, 0x00, 0x00, 0x1c, 0x00, 0x00, 0x00,
  0x0e, 0x00, 0x00, 0x00, 0x80, 0x00, 0x00, 0x00, 0x02, 0x00, 0x00, 0x00,
  0xff, 0xff, 0xff, 0xff, 0x40, 0x00, 0x00, 0x00, 0x3c, 0xfc, 0xff, 0xff,
  0x64, 0x00, 0x00, 0x00, 0x73, 0x65, 0x71, 0x75, 0x65, 0x6e, 0x74, 0x69,
  0x61, 0x6c, 0x5f, 0x32, 0x30, 0x5f, 0x31, 0x2f, 0x64, 0x65, 0x6e, 0x73,
  0x65, 0x5f, 0x38, 0x39, 0x5f, 0x31, 0x2f, 0x4d, 0x61, 0x74, 0x4d, 0x75,
  0x6c, 0x3b, 0x73, 0x65, 0x71, 0x75, 0x65, 0x6e, 0x74, 0x69, 0x61, 0x6c,
  0x5f, 0x32, 0x30, 0x5f, 0x31, 0x2f, 0x64, 0x65, 0x6e, 0x73, 0x65, 0x5f,
  0x38, 0x39, 0x5f, 0x31, 0x2f, 0x52, 0x65, 0x6c, 0x75, 0x3b, 0x73, 0x65,
  0x71, 0x75, 0x65, 0x6e, 0x74, 0x69, 0x61, 0x6c, 0x5f, 0x32, 0x30, 0x5f,
  0x31, 0x2f, 0x64, 0x65, 0x6e, 0x73, 0x65, 0x5f, 0x38, 0x39, 0x5f, 0x31,
  0x2f, 0x42, 0x69, 0x61, 0x73, 0x41, 0x64, 0x64, 0x00, 0x00, 0x00, 0x00,
  0x02, 0x00, 0x00, 0x00, 0x01, 0x00, 0x00, 0x00, 0x40, 0x00, 0x00, 0x00,
  0x4a, 0xfd, 0xff, 0xff, 0x00, 0x00, 0x00, 0x01, 0x10, 0x00, 0x00, 0x00,
  0x10, 0x00, 0x00, 0x00, 0x0d, 0x00, 0x00, 0x00, 0x30, 0x00, 0x00, 0x00,
  0xd0, 0xfc, 0xff, 0xff, 0x21, 0x00, 0x00, 0x00, 0x73, 0x65, 0x71, 0x75,
  0x65, 0x6e, 0x74, 0x69, 0x61, 0x6c, 0x5f, 0x32, 0x30, 0x5f, 0x31, 0x2f,
  0x64, 0x65, 0x6e, 0x73, 0x65, 0x5f, 0x38, 0x39, 0x5f, 0x31, 0x2f, 0x4d,
  0x61, 0x74, 0x4d, 0x75, 0x6c, 0x00, 0x00, 0x00, 0x02, 0x00, 0x00, 0x00,
  0x40, 0x00, 0x00, 0x00, 0x03, 0x00, 0x00, 0x00, 0x9a, 0xfd, 0xff, 0xff,
  0x00, 0x00, 0x00, 0x01, 0x10, 0x00, 0x00, 0x00, 0x10, 0x00, 0x00, 0x00,
  0x0c, 0x00, 0x00, 0x00, 0x40, 0x00, 0x00, 0x00, 0x20, 0xfd, 0xff, 0xff,
  0x31, 0x00, 0x00, 0x00, 0x73, 0x65, 0x71, 0x75, 0x65, 0x6e, 0x74, 0x69,
  0x61, 0x6c, 0x5f, 0x32, 0x30, 0x5f, 0x31, 0x2f, 0x64, 0x65, 0x6e, 0x73,
  0x65, 0x5f, 0x38, 0x39, 0x5f, 0x31, 0x2f, 0x42, 0x69, 0x61, 0x73, 0x41,
  0x64, 0x64, 0x2f, 0x52, 0x65, 0x61, 0x64, 0x56, 0x61, 0x72, 0x69, 0x61,
  0x62, 0x6c, 0x65, 0x4f, 0x70, 0x00, 0x00, 0x00, 0x01, 0x00, 0x00, 0x00,
  0x40, 0x00, 0x00, 0x00, 0xf6, 0xfd, 0xff, 0xff, 0x00, 0x00, 0x00, 0x01,
  0x10, 0x00, 0x00, 0x00, 0x10, 0x00, 0x00, 0x00, 0x0b, 0x00, 0x00, 0x00,
  0x1c, 0x00, 0x00, 0x00, 0x7c, 0xfd, 0xff, 0xff, 0x0f, 0x00, 0x00, 0x00,
  0x61, 0x72, 0x69, 0x74, 0x68, 0x2e, 0x63, 0x6f, 0x6e, 0x73, 0x74, 0x61,
  0x6e, 0x74, 0x39, 0x00, 0x01, 0x00, 0x00, 0x00, 0x20, 0x00, 0x00, 0x00,
  0x2e, 0xfe, 0xff, 0xff, 0x00, 0x00, 0x00, 0x01, 0x10, 0x00, 0x00, 0x00,
  0x10, 0x00, 0x00, 0x00, 0x0a, 0x00, 0x00, 0x00, 0x1c, 0x00, 0x00, 0x00,
  0xb4, 0xfd, 0xff, 0xff, 0x0f, 0x00, 0x00, 0x00, 0x61, 0x72, 0x69, 0x74,
  0x68, 0x2e, 0x63, 0x6f, 0x6e, 0x73, 0x74, 0x61, 0x6e, 0x74, 0x38, 0x00,
  0x01, 0x00, 0x00, 0x00, 0x10, 0x00, 0x00, 0x00, 0x66, 0xfe, 0xff, 0xff,
  0x00, 0x00, 0x00, 0x01, 0x10, 0x00, 0x00, 0x00, 0x10, 0x00, 0x00, 0x00,
  0x09, 0x00, 0x00, 0x00, 0x1c, 0x00, 0x00, 0x00, 0xec, 0xfd, 0xff, 0xff,
  0x0f, 0x00, 0x00, 0x00, 0x61, 0x72, 0x69, 0x74, 0x68, 0x2e, 0x63, 0x6f,
  0x6e, 0x73, 0x74, 0x61, 0x6e, 0x74, 0x37, 0x00, 0x01, 0x00, 0x00, 0x00,
  0x08, 0x00, 0x00, 0x00, 0x9e, 0xfe, 0xff, 0xff, 0x00, 0x00, 0x00, 0x01,
  0x10, 0x00, 0x00, 0x00, 0x10, 0x00, 0x00, 0x00, 0x08, 0x00, 0x00, 0x00,
  0x1c, 0x00, 0x00, 0x00, 0x24, 0xfe, 0xff, 0xff, 0x0f, 0x00, 0x00, 0x00,
  0x61, 0x72, 0x69, 0x74, 0x68, 0x2e, 0x63, 0x6f, 0x6e, 0x73, 0x74, 0x61,
  0x6e, 0x74, 0x36, 0x00, 0x01, 0x00, 0x00, 0x00, 0x04, 0x00, 0x00, 0x00,
  0xd6, 0xfe, 0xff, 0xff, 0x00, 0x00, 0x00, 0x01, 0x10, 0x00, 0x00, 0x00,
  0x10, 0x00, 0x00, 0x00, 0x07, 0x00, 0x00, 0x00, 0x1c, 0x00, 0x00, 0x00,
  0x5c, 0xfe, 0xff, 0xff, 0x0f, 0x00, 0x00, 0x00, 0x61, 0x72, 0x69, 0x74,
  0x68, 0x2e, 0x63, 0x6f, 0x6e, 0x73, 0x74, 0x61, 0x6e, 0x74, 0x35, 0x00,
  0x01, 0x00, 0x00, 0x00, 0x01, 0x00, 0x00, 0x00, 0x0e, 0xff, 0xff, 0xff,
  0x00, 0x00, 0x00, 0x01, 0x10, 0x00, 0x00, 0x00, 0x10, 0x00, 0x00, 0x00,
  0x06, 0x00, 0x00, 0x00, 0x1c, 0x00, 0x00, 0x00, 0x94, 0xfe, 0xff, 0xff,
  0x0f, 0x00, 0x00, 0x00, 0x61, 0x72, 0x69, 0x74, 0x68, 0x2e, 0x63, 0x6f,
  0x6e, 0x73, 0x74, 0x61, 0x6e, 0x74, 0x34, 0x00, 0x02, 0x00, 0x00, 0x00,
  0x20, 0x00, 0x00, 0x00, 0x40, 0x00, 0x00, 0x00, 0x4a, 0xff, 0xff, 0xff,
  0x00, 0x00, 0x00, 0x01, 0x10, 0x00, 0x00, 0x00, 0x10, 0x00, 0x00, 0x00,
  0x05, 0x00, 0x00, 0x00, 0x1c, 0x00, 0x00, 0x00, 0xd0, 0xfe, 0xff, 0xff,
  0x0f, 0x00, 0x00, 0x00, 0x61, 0x72, 0x69, 0x74, 0x68, 0x2e, 0x63, 0x6f,
  0x6e, 0x73, 0x74, 0x61, 0x6e, 0x74, 0x33, 0x00, 0x02, 0x00, 0x00, 0x00,
  0x10, 0x00, 0x00, 0x00, 0x20, 0x00, 0x00, 0x00, 0x86, 0xff, 0xff, 0xff,
  0x00, 0x00, 0x00, 0x01, 0x10, 0x00, 0x00, 0x00, 0x10, 0x00, 0x00, 0x00,
  0x04, 0x00, 0x00, 0x00, 0x1c, 0x00, 0x00, 0x00, 0x0c, 0xff, 0xff, 0xff,
  0x0f, 0x00, 0x00, 0x00, 0x61, 0x72, 0x69, 0x74, 0x68, 0x2e, 0x63, 0x6f,
  0x6e, 0x73, 0x74, 0x61, 0x6e, 0x74, 0x32, 0x00, 0x02, 0x00, 0x00, 0x00,
  0x08, 0x00, 0x00, 0x00, 0x10, 0x00, 0x00, 0x00, 0xc2, 0xff, 0xff, 0xff,
  0x00, 0x00, 0x00, 0x01, 0x10, 0x00, 0x00, 0x00, 0x10, 0x00, 0x00, 0x00,
  0x03, 0x00, 0x00, 0x00, 0x1c, 0x00, 0x00, 0x00, 0x48, 0xff, 0xff, 0xff,
  0x0f, 0x00, 0x00, 0x00, 0x61, 0x72, 0x69, 0x74, 0x68, 0x2e, 0x63, 0x6f,
  0x6e, 0x73, 0x74, 0x61, 0x6e, 0x74, 0x31, 0x00, 0x02, 0x00, 0x00, 0x00,
  0x04, 0x00, 0x00, 0x00, 0x08, 0x00, 0x00, 0x00, 0x00, 0x00, 0x16, 0x00,
  0x18, 0x00, 0x14, 0x00, 0x00, 0x00, 0x10, 0x00, 0x0c, 0x00, 0x08, 0x00,
  0x00, 0x00, 0x00, 0x00, 0x00, 0x00, 0x07, 0x00, 0x16, 0x00, 0x00, 0x00,
  0x00, 0x00, 0x00, 0x01, 0x10, 0x00, 0x00, 0x00, 0x10, 0x00, 0x00, 0x00,
  0x02, 0x00, 0x00, 0x00, 0x1c, 0x00, 0x00, 0x00, 0x9c, 0xff, 0xff, 0xff,
  0x0e, 0x00, 0x00, 0x00, 0x61, 0x72, 0x69, 0x74, 0x68, 0x2e, 0x63, 0x6f,
  0x6e, 0x73, 0x74, 0x61, 0x6e, 0x74, 0x00, 0x00, 0x02, 0x00, 0x00, 0x00,
  0x01, 0x00, 0x00, 0x00, 0x04, 0x00, 0x00, 0x00, 0x00, 0x00, 0x16, 0x00,
  0x1c, 0x00, 0x18, 0x00, 0x00, 0x00, 0x14, 0x00, 0x10, 0x00, 0x0c, 0x00,
  0x00, 0x00, 0x00, 0x00, 0x08, 0x00, 0x07, 0x00, 0x16, 0x00, 0x00, 0x00,
  0x00, 0x00, 0x00, 0x01, 0x14, 0x00, 0x00, 0x00, 0x20, 0x00, 0x00, 0x00,
  0x20, 0x00, 0x00, 0x00, 0x01, 0x00, 0x00, 0x00, 0x40, 0x00, 0x00, 0x00,
  0x02, 0x00, 0x00, 0x00, 0xff, 0xff, 0xff, 0xff, 0x03, 0x00, 0x00, 0x00,
  0x04, 0x00, 0x04, 0x00, 0x04, 0x00, 0x00, 0x00, 0x22, 0x00, 0x00, 0x00,
  0x73, 0x65, 0x72, 0x76, 0x69, 0x6e, 0x67, 0x5f, 0x64, 0x65, 0x66, 0x61,
  0x75, 0x6c, 0x74, 0x5f, 0x6b, 0x65, 0x72, 0x61, 0x73, 0x5f, 0x74, 0x65,
  0x6e, 0x73, 0x6f, 0x72, 0x5f, 0x31, 0x30, 0x39, 0x3a, 0x30, 0x00, 0x00,
  0x02, 0x00, 0x00, 0x00, 0x01, 0x00, 0x00, 0x00, 0x03, 0x00, 0x00, 0x00,
  0x01, 0x00, 0x00, 0x00, 0x10, 0x00, 0x00, 0x00, 0x0c, 0x00, 0x0c, 0x00,
  0x0b, 0x00, 0x00, 0x00, 0x00, 0x00, 0x04, 0x00, 0x0c, 0x00, 0x00, 0x00,
  0x09, 0x00, 0x00, 0x00, 0x00, 0x00, 0x00, 0x09
};
unsigned int mlp_model_tflite_len = 15236;
